{
  "version": "1.0",
  "truncation": null,
  "padding": null,
  "added_tokens": [
    {
      "id": 0,
      "content": "<UNK>",
      "single_word": false,
      "lstrip": false,
      "rstrip": false,
      "normalized": false,
      "special": true
    }
  ],
  "normalizer": null,
  "pre_tokenizer": {
    "type": "Whitespace"
  },
  "post_processor": null,
  "decoder": null,
  "model": {
    "type": "BPE",
    "dropout": null,
    "unk_token": "<UNK>",
    "continuing_subword_prefix": null,
    "end_of_word_suffix": null,
    "fuse_unk": false,
    "byte_fallback": false,
    "ignore_merges": false,
    "vocab": {
      "<UNK>": 0,
      "'": 1,
      "+": 2,
      ",": 3,
      "-": 4,
      ".": 5,
      "/": 6,
      "0": 7,
      "1": 8,
      "2": 9,
      "3": 10,
      "5": 11,
      "9": 12,
      ":": 13,
      "?": 14,
      "A": 15,
      "B": 16,
      "C": 17,
      "D": 18,
      "E": 19,
      "F": 20,
      "G": 21,
      "H": 22,
      "I": 23,
      "J": 24,
      "K": 25,
      "L": 26,
      "M": 27,
      "N": 28,
      "O": 29,
      "P": 30,
      "Q": 31,
      "R": 32,
      "S": 33,
      "T": 34,
      "U": 35,
      "V": 36,
      "W": 37,
      "X": 38,
      "Y": 39,
      "Z": 40,
      "a": 41,
      "b": 42,
      "c": 43,
      "d": 44,
      "e": 45,
      "f": 46,
      "g": 47,
      "h": 48,
      "i": 49,
      "j": 50,
      "k": 51,
      "l": 52,
      "m": 53,
      "n": 54,
      "o": 55,
      "p": 56,
      "q": 57,
      "r": 58,
      "s": 59,
      "t": 60,
      "u": 61,
      "v": 62,
      "w": 63,
      "x": 64,
      "y": 65,
      "z": 66,
      "in": 67,
      "re": 68,
      "th": 69,
      "er": 70,
      "en": 71,
      "ing": 72,
      "es": 73,
      "an": 74,
      "at": 75,
      "on": 76,
      "or": 77,
      "al": 78,
      "is": 79,
      "ro": 80,
      "te": 81,
      "le": 82,
      "the": 83,
      "ion": 84,
      "ch": 85,
      "of": 86,
      "ct": 87,
      "ou": 88,
      "it": 89,
      "ar": 90,
      "de": 91,
      "pro": 92,
      "ab": 93,
      "st": 94,
      "ent": 95,
      "and": 96,
      "co": 97,
      "ve": 98,
      "il": 99,
      "ce": 100,
      "im": 101,
      "for": 102,
      "as": 103,
      "ge": 104,
      "ine": 105,
      "bu": 106,
      "to": 107,
      "that": 108,
      "out": 109,
      "ms": 110,
      "est": 111,
      "be": 112,
      "ic": 113,
      "are": 114,
      "ly": 115,
      "he": 116,
      "ure": 117,
      "ers": 118,
      "no": 119,
      "ys": 120,
      "gine": 121,
      "li": 122,
      "com": 123,
      "fe": 124,
      "mo": 125,
      "ions": 126,
      "ity": 127,
      "ding": 128,
      "ver": 129,
      "ess": 130,
      "per": 131,
      "ment": 132,
      "un": 133,
      "fa": 134,
      "The": 135,
      "ite": 136,
      "yste": 137,
      "ma": 138,
      "thin": 139,
      "qu": 140,
      "syste": 141,
      "about": 142,
      "ation": 143,
      "engine": 144,
      "ig": 145,
      "ith": 146,
      "think": 147,
      "ol": 148,
      "not": 149,
      "us": 150,
      "ra": 151,
      "if": 152,
      "with": 153,
      "con": 154,
      "wh": 155,
      "ke": 156,
      "ble": 157,
      "all": 158,
      "form": 159,
      "du": 160,
      "ur": 161,
      "ering": 162,
      "ul": 163,
      "ance": 164,
      "ut": 165,
      "ilding": 166,
      "res": 167,
      "wor": 168,
      "ter": 169,
      "systems": 170,
      "ed": 171,
      "requ": 172,
      "chite": 173,
      "chitect": 174,
      "test": 175,
      "ha": 176,
      "oy": 177,
      "able": 178,
      "cre": 179,
      "ive": 180,
      "vi": 181,
      "ren": 182,
      "me": 183,
      "lear": 184,
      "requi": 185,
      "engineering": 186,
      "work": 187,
      "tea": 188,
      "bet": 189,
      "code": 190,
      "pl": 191,
      "more": 192,
      "formance": 193,
      "ex": 194,
      "do": 195,
      "rent": 196,
      "oo": 197,
      "ical": 198,
      "architect": 199,
      "proble": 200,
      "joy": 201,
      "ef": 202,
      "enjoy": 203,
      "der": 204,
      "building": 205,
      "can": 206,
      "impro": 207,
      "chan": 208,
      "stand": 209,
      "int": 210,
      "produ": 211,
      "imp": 212,
      "allen": 213,
      "like": 214,
      "challen": 215,
      "rom": 216,
      "from": 217,
      "tim": 218,
      "ad": 219,
      "challenge": 220,
      "ard": 221,
      "pe": 222,
      "chn": 223,
      "ru": 224,
      "vol": 225,
      "cess": 226,
      "derstand": 227,
      "very": 228,
      "ning": 229,
      "creat": 230,
      "chnical": 231,
      "se": 232,
      "ist": 233,
      "op": 234,
      "performance": 235,
      "ood": 236,
      "ci": 237,
      "bug": 238,
      "requires": 239,
      "dec": 240,
      "ac": 241,
      "process": 242,
      "better": 243,
      "fact": 244,
      "ow": 245,
      "problems": 246,
      "technical": 247,
      "understand": 248,
      "sh": 249,
      "ew": 250,
      "you": 251,
      "decis": 252,
      "have": 253,
      "we": 254,
      "than": 255,
      "iv": 256,
      "ant": 257,
      "des": 258,
      "oft": 259,
      "oring": 260,
      "its": 261,
      "decisions": 262,
      "les": 263,
      "dif": 264,
      "ate": 265,
      "comp": 266,
      "fail": 267,
      "age": 268,
      "ous": 269,
      "but": 270,
      "val": 271,
      "ves": 272,
      "ferent": 273,
      "su": 274,
      "factoring": 275,
      "dis": 276,
      "gr": 277,
      "tegr": 278,
      "without": 279,
      "ents": 280,
      "ak": 281,
      "evol": 282,
      "ach": 283,
      "pen": 284,
      "wa": 285,
      "ility": 286,
      "different": 287,
      "ot": 288,
      "ature": 289,
      "ments": 290,
      "get": 291,
      "one": 292,
      "En": 293,
      "oc": 294,
      "ution": 295,
      "ence": 296,
      "valu": 297,
      "main": 298,
      "engineers": 299,
      "Re": 300,
      "best": 301,
      "product": 302,
      "iz": 303,
      "ip": 304,
      "so": 305,
      "fect": 306,
      "most": 307,
      "who": 308,
      "exper": 309,
      "every": 310,
      "enab": 311,
      "gh": 312,
      "enables": 313,
      "ces": 314,
      "what": 315,
      "cannot": 316,
      "time": 317,
      "ural": 318,
      "cur": 319,
      "learning": 320,
      "Good": 321,
      "fi": 322,
      "architectural": 323,
      "integr": 324,
      "team": 325,
      "act": 326,
      "ill": 327,
      "ort": 328,
      "ible": 329,
      "ary": 330,
      "ting": 331,
      "wr": 332,
      "ently": 333,
      "cont": 334,
      "chang": 335,
      "sol": 336,
      "ies": 337,
      "teams": 338,
      "ap": 339,
      "change": 340,
      "integrity": 341,
      "effect": 342,
      "verif": 343,
      "igh": 344,
      "ign": 345,
      "tests": 346,
      "when": 347,
      "ful": 348,
      "refactoring": 349,
      "architecture": 350,
      "comes": 351,
      "gra": 352,
      "ally": 353,
      "Engine": 354,
      "thinking": 355,
      "ivity": 356,
      "hard": 357,
      "mall": 358,
      "ll": 359,
      "bre": 360,
      "oth": 361,
      "reli": 362,
      "system": 363,
      "Bu": 364,
      "fun": 365,
      "cor": 366,
      "ag": 367,
      "ear": 368,
      "rev": 369,
      "pend": 370,
      "ted": 371,
      "ract": 372,
      "vel": 373,
      "man": 374,
      "ving": 375,
      "often": 376,
      "Building": 377,
      "Per": 378,
      "sa": 379,
      "depend": 380,
      "cipl": 381,
      "mat": 382,
      "pa": 383,
      "outcomes": 384,
      "ness": 385,
      "view": 386,
      "discipl": 387,
      "design": 388,
      "working": 389,
      "discipline": 390,
      "ugh": 391,
      "ri": 392,
      "review": 393,
      "clear": 394,
      "ience": 395,
      "users": 396,
      "feature": 397,
      "thro": 398,
      "import": 399,
      "through": 400,
      "atch": 401,
      "changes": 402,
      "mental": 403,
      "incre": 404,
      "fort": 405,
      "improves": 406,
      "buil": 407,
      "ult": 408,
      "improve": 409,
      "rust": 410,
      "comm": 411,
      "make": 412,
      "creativity": 413,
      "domain": 414,
      "ld": 415,
      "thing": 416,
      "ication": 417,
      "creative": 418,
      "In": 419,
      "ability": 420,
      "stru": 421,
      "dget": 422,
      "small": 423,
      "budget": 424,
      "betwe": 425,
      "between": 426,
      "require": 427,
      "ations": 428,
      "beha": 429,
      "vior": 430,
      "funct": 431,
      "behavior": 432,
      "failure": 433,
      "ice": 434,
      "aking": 435,
      "ways": 436,
      "ep": 437,
      "verify": 438,
      "struct": 439,
      "lo": 440,
      "ware": 441,
      "pt": 442,
      "ust": 443,
      "inu": 444,
      "effort": 445,
      "bas": 446,
      "impact": 447,
      "now": 448,
      "maint": 449,
      "structure": 450,
      "by": 451,
      "ared": 452,
      "cy": 453,
      "ne": 454,
      "ional": 455,
      "new": 456,
      "over": 457,
      "ty": 458,
      "evolution": 459,
      "ould": 460,
      "pract": 461,
      "vent": 462,
      "codebas": 463,
      "mainta": 464,
      "redu": 465,
      "ong": 466,
      "os": 467,
      "sc": 468,
      "eas": 469,
      "spe": 470,
      "deli": 471,
      "use": 472,
      "timiz": 473,
      "experim": 474,
      "Engineering": 475,
      "valuable": 476,
      "bugs": 477,
      "Ar": 478,
      "chitecture": 479,
      "Architecture": 480,
      "Test": 481,
      "ca": 482,
      "also": 483,
      "safe": 484,
      "inuous": 485,
      "good": 486,
      "optimiz": 487,
      "ud": 488,
      "corre": 489,
      "lim": 490,
      "utions": 491,
      "real": 492,
      "solutions": 493,
      "build": 494,
      "ined": 495,
      "know": 496,
      "experiments": 497,
      "cu": 498,
      "el": 499,
      "cas": 500,
      "continuous": 501,
      "incremental": 502,
      "testing": 503,
      "ans": 504,
      "Te": 505,
      "rig": 506,
      "proper": 507,
      "meas": 508,
      "Performance": 509,
      "ging": 510,
      "just": 511,
      "shared": 512,
      "bt": 513,
      "vis": 514,
      "hip": 515,
      "ind": 516,
      "const": 517,
      "oftware": 518,
      "suite": 519,
      "uto": 520,
      "problem": 521,
      "prev": 522,
      "ight": 523,
      "ir": 524,
      "cost": 525,
      "ack": 526,
      "effective": 527,
      "path": 528,
      "ates": 529,
      "our": 530,
      "fast": 531,
      "everyone": 532,
      "they": 533,
      "ints": 534,
      "software": 535,
      "will": 536,
      "eve": 537,
      "rit": 538,
      "requirements": 539,
      "constra": 540,
      "ang": 541,
      "lex": 542,
      "well": 543,
      "current": 544,
      "ps": 545,
      "ore": 546,
      "visible": 547,
      "row": 548,
      "improving": 549,
      "pat": 550,
      "trust": 551,
      "reve": 552,
      "arge": 553,
      "way": 554,
      "reveal": 555,
      "learn": 556,
      "catch": 557,
      "independ": 558,
      "ale": 559,
      "vest": 560,
      "beli": 561,
      "domains": 562,
      "fit": 563,
      "ually": 564,
      "ata": 565,
      "ists": 566,
      "inding": 567,
      "reat": 568,
      "prevents": 569,
      "alists": 570,
      "debt": 571,
      "comb": 572,
      "functions": 573,
      "produce": 574,
      "evolve": 575,
      "value": 576,
      "breaking": 577,
      "believe": 578,
      "how": 579,
      "plic": 580,
      "maintained": 581,
      "bility": 582,
      "correct": 583,
      "art": 584,
      "volution": 585,
      "oun": 586,
      "come": 587,
      "some": 588,
      "codebase": 589,
      "reduces": 590,
      "De": 591,
      "Evolution": 592,
      "Pro": 593,
      "ties": 594,
      "want": 595,
      "practice": 596,
      "properties": 597,
      "fitness": 598,
      "Evolutionary": 599,
      "del": 600,
      "complex": 601,
      "reliable": 602,
      "fore": 603,
      "has": 604,
      "cohe": 605,
      "acce": 606,
      "their": 607,
      "both": 608,
      "feel": 609,
      "mu": 610,
      "ency": 611,
      "before": 612,
      "own": 613,
      "ulture": 614,
      "much": 615,
      "ibility": 616,
      "bugging": 617,
      "Rs": 618,
      "PRs": 619,
      "ck": 620,
      "tern": 621,
      "put": 622,
      "degra": 623,
      "user": 624,
      "features": 625,
      "St": 626,
      "only": 627,
      "model": 628,
      "da": 629,
      "ial": 630,
      "ob": 631,
      "sing": 632,
      "rel": 633,
      "always": 634,
      "ass": 635,
      "importance": 636,
      "dr": 637,
      "high": 638,
      "whe": 639,
      "leg": 640,
      "wrong": 641,
      "Ex": 642,
      "culture": 643,
      "pr": 644,
      "intent": 645,
      "fid": 646,
      "constraints": 647,
      "Con": 648,
      "ide": 649,
      "limits": 650,
      "cl": 651,
      "grow": 652,
      "ationship": 653,
      "Fe": 654,
      "confid": 655,
      "imple": 656,
      "ribut": 657,
      "relationship": 658,
      "Finding": 659,
      "Not": 660,
      "should": 661,
      "Feature": 662,
      "lea": 663,
      "experience": 664,
      "curity": 665,
      "important": 666,
      "cause": 667,
      "utomat": 668,
      "Each": 669,
      "ards": 670,
      "eck": 671,
      "novel": 672,
      "understanding": 673,
      "rigor": 674,
      "ound": 675,
      "where": 676,
      "kill": 677,
      "ship": 678,
      "budgets": 679,
      "combine": 680,
      "mak": 681,
      "write": 682,
      "impactful": 683,
      "ource": 684,
      "ber": 685,
      "ins": 686,
      "force": 687,
      "utomated": 688,
      "skill": 689,
      "ices": 690,
      "igning": 691,
      "Features": 692,
      "sive": 693,
      "was": 694,
      "xt": 695,
      "invest": 696,
      "text": 697,
      "am": 698,
      "tool": 699,
      "verage": 700,
      "uring": 701,
      "commun": 702,
      "cum": 703,
      "data": 704,
      "low": 705,
      "ste": 706,
      "inter": 707,
      "devel": 708,
      "see": 709,
      "optimization": 710,
      "convent": 711,
      "means": 712,
      "Des": 713,
      "oper": 714,
      "ition": 715,
      "edge": 716,
      "independently": 717,
      "berate": 718,
      "ploy": 719,
      "common": 720,
      "less": 721,
      "sat": 722,
      "erve": 723,
      "deep": 724,
      "exce": 725,
      "ott": 726,
      "Refactoring": 727,
      "revers": 728,
      "ptions": 729,
      "scale": 730,
      "angu": 731,
      "something": 732,
      "forcement": 733,
      "satis": 734,
      "gen": 735,
      "tr": 736,
      "ential": 737,
      "mem": 738,
      "ree": 739,
      "ther": 740,
      "def": 741,
      "processes": 742,
      "Writ": 743,
      "gn": 744,
      "langu": 745,
      "voc": 746,
      "led": 747,
      "ably": 748,
      "abul": 749,
      "ople": 750,
      "Designing": 751,
      "ines": 752,
      "keep": 753,
      "Tests": 754,
      "Writing": 755,
      "vocabul": 756,
      "vocabulary": 757,
      "id": 758,
      "ks": 759,
      "part": 760,
      "people": 761,
      "reliably": 762,
      "ribution": 763,
      "Large": 764,
      "tra": 765,
      "enable": 766,
      "context": 767,
      "ocus": 768,
      "improvement": 769,
      "deliberate": 770,
      "cing": 771,
      "em": 772,
      "role": 773,
      "does": 774,
      "produces": 775,
      "ain": 776,
      "focus": 777,
      "pres": 778,
      "ser": 779,
      "sess": 780,
      "sist": 781,
      "simple": 782,
      "deploy": 783,
      "asing": 784,
      "delivery": 785,
      "complexity": 786,
      "develop": 787,
      "Every": 788,
      "ading": 789,
      "ris": 790,
      "progra": 791,
      "ational": 792,
      "eds": 793,
      "gener": 794,
      "cif": 795,
      "teach": 796,
      "fix": 797,
      "Engineers": 798,
      "builds": 799,
      "ect": 800,
      "ler": 801,
      "your": 802,
      "specif": 803,
      "Meas": 804,
      "ons": 805,
      "usually": 806,
      "ads": 807,
      "reating": 808,
      "correctness": 809,
      "sessions": 810,
      "Co": 811,
      "provi": 812,
      "other": 813,
      "cases": 814,
      "language": 815,
      "ject": 816,
      "worth": 817,
      "akes": 818,
      "pattern": 819,
      "Measuring": 820,
      "Treating": 821,
      "back": 822,
      "fra": 823,
      "ioning": 824,
      "urable": 825,
      "measurable": 826,
      "ceful": 827,
      "ick": 828,
      "ideas": 829,
      "satisfact": 830,
      "fic": 831,
      "fess": 832,
      "hu": 833,
      "aries": 834,
      "profess": 835,
      "hel": 836,
      "made": 837,
      "class": 838,
      "mist": 839,
      "ss": 840,
      "ory": 841,
      "confidently": 842,
      "professional": 843,
      "pons": 844,
      "any": 845,
      "output": 846,
      "unit": 847,
      "Testing": 848,
      "coherent": 849,
      "risk": 850,
      "ams": 851,
      "len": 852,
      "my": 853,
      "ners": 854,
      "sum": 855,
      "Teams": 856,
      "legant": 857,
      "mistakes": 858,
      "bers": 859,
      "go": 860,
      "ics": 861,
      "clearly": 862,
      "things": 863,
      "ottlen": 864,
      "ottleneck": 865,
      "bottleneck": 866,
      "each": 867,
      "add": 868,
      "agree": 869,
      "manag": 870,
      "atching": 871,
      "tools": 872,
      "mis": 873,
      "root": 874,
      "quick": 875,
      "respons": 876,
      "fails": 877,
      "Ad": 878,
      "igation": 879,
      "verification": 880,
      "measure": 881,
      "Hard": 882,
      "bound": 883,
      "att": 884,
      "ross": 885,
      "sel": 886,
      "Integr": 887,
      "investigation": 888,
      "members": 889,
      "satisfaction": 890,
      "classes": 891,
      "quickly": 892,
      "cou": 893,
      "ret": 894,
      "proud": 895,
      "utting": 896,
      "occas": 897,
      "intentional": 898,
      "program": 899,
      "specification": 900,
      "self": 901,
      "Integration": 902,
      "Th": 903,
      "Trust": 904,
      "ality": 905,
      "ionally": 906,
      "debugging": 907,
      "mentation": 908,
      "appro": 909,
      "corners": 910,
      "acceler": 911,
      "degrade": 912,
      "boundaries": 913,
      "occasionally": 914,
      "Automated": 915,
      "Cutting": 916,
      "Spe": 917,
      "could": 918,
      "po": 919,
      "ining": 920,
      "gether": 921,
      "adth": 922,
      "across": 923,
      "disagree": 924,
      "drif": 925,
      "leave": 926,
      "accelerates": 927,
      "right": 928,
      "ough": 929,
      "standards": 930,
      "aching": 931,
      "breadth": 932,
      "gor": 933,
      "ense": 934,
      "whole": 935,
      "fixed": 936,
      "managers": 937,
      "Se": 938,
      "fil": 939,
      "mic": 940,
      "ching": 941,
      "assum": 942,
      "apting": 943,
      "functioning": 944,
      "exceeds": 945,
      "worthy": 946,
      "disagreements": 947,
      "gorith": 948,
      "Un": 949,
      "vers": 950,
      "roles": 951,
      "cialists": 952,
      "writ": 953,
      "single": 954,
      "generalists": 955,
      "Adapting": 956,
      "Specialists": 957,
      "od": 958,
      "ward": 959,
      "ery": 960,
      "together": 961,
      "ically": 962,
      "br": 963,
      "algorith": 964,
      "optimizing": 965,
      "bad": 966,
      "hen": 967,
      "ying": 968,
      "enforcement": 969,
      "itive": 970,
      "uture": 971,
      "improvements": 972,
      "reversible": 973,
      "approach": 974,
      "iqu": 975,
      "become": 976,
      "ular": 977,
      "rence": 978,
      "pet": 979,
      "changing": 980,
      "solve": 981,
      "faster": 982,
      "Profil": 983,
      "development": 984,
      "Profiling": 985,
      "big": 986,
      "ror": 987,
      "consist": 988,
      "ooks": 989,
      "responsibility": 990,
      "ier": 991,
      "wit": 992,
      "ated": 993,
      "makes": 994,
      "convention": 995,
      "ero": 996,
      "compet": 997,
      "notice": 998,
      "ulation": 999,
      "ruptions": 1000,
      "log": 1001,
      "helps": 1002,
      "Security": 1003,
      "swit": 1004,
      "ten": 1005,
      "coverage": 1006,
      "usage": 1007,
      "accum": 1008,
      "Reading": 1009,
      "early": 1010,
      "switching": 1011,
      "cle": 1012,
      "gest": 1013,
      "ron": 1014,
      "wins": 1015,
      "vious": 1016,
      "steps": 1017,
      "future": 1018,
      "mor": 1019,
      "quality": 1020,
      "resource": 1021,
      "love": 1022,
      "codebases": 1023,
      "spect": 1024,
      "obvious": 1025,
      "skills": 1026,
      "wasted": 1027,
      "retro": 1028,
      "biggest": 1029,
      "gers": 1030,
      "line": 1031,
      "ual": 1032,
      "ones": 1033,
      "easier": 1034,
      "preserve": 1035,
      "Com": 1036,
      "algorithmic": 1037,
      "Fear": 1038,
      "frequ": 1039,
      "port": 1040,
      "rehen": 1041,
      "tell": 1042,
      "off": 1043,
      "cogn": 1044,
      "ceive": 1045,
      "docu": 1046,
      "comprehen": 1047,
      "Perceive": 1048,
      "caus": 1049,
      "patience": 1050,
      "Exce": 1051,
      "measured": 1052,
      "Understand": 1053,
      "accumulation": 1054,
      "retrospect": 1055,
      "comprehensive": 1056,
      "Perceived": 1057,
      "Small": 1058,
      "ast": 1059,
      "mind": 1060,
      "pre": 1061,
      "icate": 1062,
      "enabled": 1063,
      "preserved": 1064,
      "Fearless": 1065,
      "Understanding": 1066,
      "books": 1067,
      "elegant": 1068,
      "under": 1069,
      "dow": 1070,
      "earn": 1071,
      "human": 1072,
      "goal": 1073,
      "attack": 1074,
      "error": 1075,
      "issu": 1076,
      "ase": 1077,
      "built": 1078,
      "ptable": 1079,
      "fastest": 1080,
      "acceptable": 1081,
      "defines": 1082,
      "provides": 1083,
      "erode": 1084,
      "eding": 1085,
      "loy": 1086,
      "pot": 1087,
      "trig": 1088,
      "inci": 1089,
      "alty": 1090,
      "state": 1091,
      "request": 1092,
      "hap": 1093,
      "practices": 1094,
      "plicit": 1095,
      "Exceeding": 1096,
      "loyalty": 1097,
      "triggers": 1098,
      "care": 1099,
      "edu": 1100,
      "hab": 1101,
      "ile": 1102,
      "rst": 1103,
      "ters": 1104,
      "reproduce": 1105,
      "compos": 1106,
      "Debugging": 1107,
      "models": 1108,
      "serv": 1109,
      "causes": 1110,
      "issues": 1111,
      "cted": 1112,
      "di": 1113,
      "stract": 1114,
      "istic": 1115,
      "first": 1116,
      "catches": 1117,
      "trans": 1118,
      "keeping": 1119,
      "clean": 1120,
      "gular": 1121,
      "large": 1122,
      "remain": 1123,
      "break": 1124,
      "ribu": 1125,
      "aming": 1126,
      "abstract": 1127,
      "sty": 1128,
      "matically": 1129,
      "increasing": 1130,
      "communication": 1131,
      "reproduced": 1132,
      "increasingly": 1133,
      "AI": 1134,
      "Lear": 1135,
      "event": 1136,
      "pos": 1137,
      "rest": 1138,
      "recogn": 1139,
      "ented": 1140,
      "having": 1141,
      "plan": 1142,
      "active": 1143,
      "matters": 1144,
      "net": 1145,
      "reveals": 1146,
      "coherence": 1147,
      "fici": 1148,
      "tells": 1149,
      "Learning": 1150,
      "recognition": 1151,
      "Doc": 1152,
      "pow": 1153,
      "source": 1154,
      "vant": 1155,
      "thor": 1156,
      "end": 1157,
      "ating": 1158,
      "atab": 1159,
      "forcing": 1160,
      "Regular": 1161,
      "production": 1162,
      "prim": 1163,
      "documentation": 1164,
      "potential": 1165,
      "style": 1166,
      "clo": 1167,
      "find": 1168,
      "hop": 1169,
      "loo": 1170,
      "pri": 1171,
      "ta": 1172,
      "replic": 1173,
      "eng": 1174,
      "ors": 1175,
      "rol": 1176,
      "ction": 1177,
      "mot": 1178,
      "resil": 1179,
      "explicit": 1180,
      "gets": 1181,
      "Enforcing": 1182,
      "graceful": 1183,
      "funda": 1184,
      "utom": 1185,
      "programmatically": 1186,
      "hoping": 1187,
      "At": 1188,
      "ios": 1189,
      "pers": 1190,
      "ts": 1191,
      "tribution": 1192,
      "stud": 1193,
      "ull": 1194,
      "Exper": 1195,
      "educ": 1196,
      "habit": 1197,
      "Docu": 1198,
      "primary": 1199,
      "AP": 1200,
      "Ment": 1201,
      "Making": 1202,
      "ple": 1203,
      "ry": 1204,
      "modes": 1205,
      "query": 1206,
      "compon": 1207,
      "aged": 1208,
      "never": 1209,
      "learned": 1210,
      "making": 1211,
      "requests": 1212,
      "power": 1213,
      "motiv": 1214,
      "Watching": 1215,
      "dang": 1216,
      "long": 1217,
      "pull": 1218,
      "sil": 1219,
      "remo": 1220,
      "erous": 1221,
      "anch": 1222,
      "orship": 1223,
      "essential": 1224,
      "reliability": 1225,
      "Technical": 1226,
      "pathy": 1227,
      "step": 1228,
      "focused": 1229,
      "branch": 1230,
      "frequently": 1231,
      "gracefully": 1232,
      "fundamental": 1233,
      "Experience": 1234,
      "educational": 1235,
      "dangerous": 1236,
      "cap": 1237,
      "sers": 1238,
      "read": 1239,
      "menting": 1240,
      "mach": 1241,
      "advant": 1242,
      "Produ": 1243,
      "experienced": 1244,
      "empathy": 1245,
      "atabase": 1246,
      "advantage": 1247,
      "Gra": 1248,
      "cad": 1249,
      "hand": 1250,
      "leverage": 1251,
      "cies": 1252,
      "Rele": 1253,
      "control": 1254,
      "others": 1255,
      "driv": 1256,
      "frastructure": 1257,
      "oughly": 1258,
      "competitive": 1259,
      "goals": 1260,
      "thoroughly": 1261,
      "replicate": 1262,
      "study": 1263,
      "Mentorship": 1264,
      "cadence": 1265,
      "Sh": 1266,
      "dation": 1267,
      "encies": 1268,
      "tect": 1269,
      "docum": 1270,
      "effici": 1271,
      "valid": 1272,
      "pays": 1273,
      "reviewed": 1274,
      "independent": 1275,
      "degradation": 1276,
      "deployable": 1277,
      "Releasing": 1278,
      "documented": 1279,
      "pth": 1280,
      "slow": 1281,
      "infrastructure": 1282,
      "reads": 1283,
      "depth": 1284,
      "viron": 1285,
      "security": 1286,
      "easy": 1287,
      "morale": 1288,
      "abstraction": 1289,
      "close": 1290,
      "Caching": 1291,
      "Database": 1292,
      "Users": 1293,
      "aud": 1294,
      "autom": 1295,
      "mult": 1296,
      "environ": 1297,
      "techn": 1298,
      "str": 1299,
      "opt": 1300,
      "contribution": 1301,
      "hardware": 1302,
      "scal": 1303,
      "conventions": 1304,
      "drift": 1305,
      "iques": 1306,
      "components": 1307,
      "motivates": 1308,
      "removes": 1309,
      "Product": 1310,
      "techniques": 1311,
      "Ali": 1312,
      "Naming": 1313,
      "anal": 1314,
      "orm": 1315,
      "dependencies": 1316,
      "highest": 1317,
      "interfa": 1318,
      "ledge": 1319,
      "engaged": 1320,
      "explicitly": 1321,
      "API": 1322,
      "closely": 1323,
      "af": 1324,
      "cer": 1325,
      "pare": 1326,
      "sur": 1327,
      "rein": 1328,
      "arting": 1329,
      "ited": 1330,
      "ization": 1331,
      "architectures": 1332,
      "dependency": 1333,
      "realistic": 1334,
      "growth": 1335,
      "happen": 1336,
      "Attribution": 1337,
      "silently": 1338,
      "driven": 1339,
      "validation": 1340,
      "paren": 1341,
      "Def": 1342,
      "tar": 1343,
      "invisible": 1344,
      "oration": 1345,
      "unde": 1346,
      "works": 1347,
      "pling": 1348,
      "deserve": 1349,
      "comput": 1350,
      "productivity": 1351,
      "again": 1352,
      "maintaining": 1353,
      "safety": 1354,
      "trustworthy": 1355,
      "princi": 1356,
      "gnment": 1357,
      "patterns": 1358,
      "degraded": 1359,
      "writing": 1360,
      "eventually": 1361,
      "Graceful": 1362,
      "automate": 1363,
      "Alignment": 1364,
      "principle": 1365,
      "automated": 1366,
      "gu": 1367,
      "gan": 1368,
      "ious": 1369,
      "ially": 1370,
      "iod": 1371,
      "sible": 1372,
      "enar": 1373,
      "ysis": 1374,
      "conf": 1375,
      "format": 1376,
      "manual": 1377,
      "depends": 1378,
      "Invest": 1379,
      "scenar": 1380,
      "Stand": 1381,
      "communicate": 1382,
      "partially": 1383,
      "assumptions": 1384,
      "down": 1385,
      "transparen": 1386,
      "cleaner": 1387,
      "tecting": 1388,
      "analysis": 1389,
      "targets": 1390,
      "scenarios": 1391,
      "Data": 1392,
      "pass": 1393,
      "them": 1394,
      "entry": 1395,
      "edback": 1396,
      "times": 1397,
      "say": 1398,
      "knowledge": 1399,
      "Starting": 1400,
      "operat": 1401,
      "frag": 1402,
      "points": 1403,
      "machine": 1404,
      "multip": 1405,
      "Standards": 1406,
      "flow": 1407,
      "king": 1408,
      "lat": 1409,
      "up": 1410,
      "inward": 1411,
      "project": 1412,
      "feedback": 1413,
      "expen": 1414,
      "decision": 1415,
      "ventions": 1416,
      "property": 1417,
      "ternal": 1418,
      "Conventions": 1419,
      "least": 1420,
      "reversibility": 1421,
      "coupling": 1422,
      "interfaces": 1423,
      "reinforcement": 1424,
      "Investing": 1425,
      "transparency": 1426,
      "fragile": 1427,
      "expensive": 1428,
      "Ch": 1429,
      "Ir": 1430,
      "It": 1431,
      "ose": 1432,
      "inform": 1433,
      "ens": 1434,
      "organ": 1435,
      "chno": 1436,
      "check": 1437,
      "heads": 1438,
      "thiness": 1439,
      "worthiness": 1440,
      "eful": 1441,
      "Revers": 1442,
      "solving": 1443,
      "many": 1444,
      "Period": 1445,
      "speed": 1446,
      "limited": 1447,
      "Trustworthy": 1448,
      "Trustworthiness": 1449,
      "drifted": 1450,
      "Documenting": 1451,
      "audits": 1452,
      "environments": 1453,
      "against": 1454,
      "Irreversible": 1455,
      "chnolog": 1456,
      "Reversible": 1457,
      "Periodic": 1458,
      "dist": 1459,
      "faul": 1460,
      "useful": 1461,
      "inting": 1462,
      "pect": 1463,
      "ives": 1464,
      "evolves": 1465,
      "izes": 1466,
      "Inter": 1467,
      "corrected": 1468,
      "constraint": 1469,
      "Defaul": 1470,
      "interruptions": 1471,
      "assumes": 1472,
      "consistency": 1473,
      "careful": 1474,
      "options": 1475,
      "formatting": 1476,
      "checking": 1477,
      "Defaulting": 1478,
      "Batching": 1479,
      "Linting": 1480,
      "So": 1481,
      "ient": 1482,
      "yn": 1483,
      "inal": 1484,
      "inject": 1485,
      "promis": 1486,
      "protecting": 1487,
      "architects": 1488,
      "share": 1489,
      "ages": 1490,
      "failures": 1491,
      "bypass": 1492,
      "typ": 1493,
      "day": 1494,
      "dama": 1495,
      "defense": 1496,
      "coup": 1497,
      "restim": 1498,
      "Defense": 1499,
      "operators": 1500,
      "Some": 1501,
      "injection": 1502,
      "Cl": 1503,
      "Do": 1504,
      "Syste": 1505,
      "great": 1506,
      "mon": 1507,
      "um": 1508,
      "year": 1509,
      "lege": 1510,
      "ities": 1511,
      "vilege": 1512,
      "reducing": 1513,
      "ightly": 1514,
      "attacks": 1515,
      "loose": 1516,
      "privilege": 1517,
      "Shared": 1518,
      "underestim": 1519,
      "Interruptions": 1520,
      "promise": 1521,
      "bypassed": 1522,
      "damage": 1523,
      "coupled": 1524,
      "underestimated": 1525,
      "Tightly": 1526,
      "la": 1527,
      "sign": 1528,
      "ub": 1529,
      "iness": 1530,
      "cept": 1531,
      "compromise": 1532,
      "diffic": 1533,
      "disc": 1534,
      "Input": 1535,
      "insight": 1536,
      "written": 1537,
      "resilient": 1538,
      "chnology": 1539,
      "years": 1540,
      "difficult": 1541,
      "But": 1542,
      "Wh": 1543,
      "av": 1544,
      "ders": 1545,
      "invol": 1546,
      "oud": 1547,
      "ention": 1548,
      "engineer": 1549,
      "concept": 1550,
      "compose": 1551,
      "need": 1552,
      "type": 1553,
      "reduce": 1554,
      "Teaching": 1555,
      "legance": 1556,
      "excell": 1557,
      "composition": 1558,
      "network": 1559,
      "Systems": 1560,
      "discus": 1561,
      "ix": 1562,
      "ling": 1563,
      "par": 1564,
      "red": 1565,
      "comfort": 1566,
      "app": 1567,
      "required": 1568,
      "Consist": 1569,
      "Domain": 1570,
      "comfortable": 1571,
      "last": 1572,
      "pi": 1573,
      "reading": 1574,
      "thod": 1575,
      "ilities": 1576,
      "method": 1577,
      "create": 1578,
      "everything": 1579,
      "curious": 1580,
      "limit": 1581,
      "observ": 1582,
      "emp": 1583,
      "hum": 1584,
      "programm": 1585,
      "That": 1586,
      "Compos": 1587,
      "ributed": 1588,
      "efficiently": 1589,
      "ormal": 1590,
      "mess": 1591,
      "must": 1592,
      "og": 1593,
      "pus": 1594,
      "abilities": 1595,
      "why": 1596,
      "ress": 1597,
      "metr": 1598,
      "expl": 1599,
      "combined": 1600,
      "feeling": 1601,
      "investment": 1602,
      "elegantly": 1603,
      "happens": 1604,
      "concepts": 1605,
      "excellent": 1606,
      "discussing": 1607,
      "push": 1608,
      "Elegant": 1609,
      "Elegance": 1610,
      "agine": 1611,
      "finding": 1612,
      "run": 1613,
      "ination": 1614,
      "ref": 1615,
      "cho": 1616,
      "itous": 1617,
      "imagine": 1618,
      "term": 1619,
      "set": 1620,
      "decoration": 1621,
      "subt": 1622,
      "contribu": 1623,
      "matter": 1624,
      "hasizes": 1625,
      "Sta": 1626,
      "deeply": 1627,
      "Code": 1628,
      "miscommunication": 1629,
      "iquitous": 1630,
      "information": 1631,
      "ubiquitous": 1632,
      "emphasizes": 1633,
      "programming": 1634,
      "Composable": 1635,
      "contribute": 1636,
      "orig": 1637,
      "dee": 1638,
      "still": 1639,
      "col": 1640,
      "forward": 1641,
      "impos": 1642,
      "web": 1643,
      "designer": 1644,
      "learners": 1645,
      "composable": 1646,
      "scaling": 1647,
      "confus": 1648,
      "types": 1649,
      "Cloud": 1650,
      "What": 1651,
      "imagined": 1652,
      "subtle": 1653,
      "original": 1654,
      "Eas": 1655,
      "tle": 1656,
      "rect": 1657,
      "ese": 1658,
      "liability": 1659,
      "comers": 1660,
      "mac": 1661,
      "dual": 1662,
      "creates": 1663,
      "newcomers": 1664,
      "Cont": 1665,
      "training": 1666,
      "deployment": 1667,
      "persist": 1668,
      "humble": 1669,
      "Staying": 1670,
      "Grow": 1671,
      "OS": 1672,
      "med": 1673,
      "om": 1674,
      "ph": 1675,
      "ping": 1676,
      "sim": 1677,
      "ven": 1678,
      "reas": 1679,
      "forg": 1680,
      "old": 1681,
      "ollow": 1682,
      "ific": 1683,
      "agement": 1684,
      "trade": 1685,
      "consistent": 1686,
      "powerful": 1687,
      "handle": 1688,
      "slower": 1689,
      "Consistency": 1690,
      "impossible": 1691,
      "confusion": 1692,
      "Easy": 1693,
      "Growth": 1694,
      "As": 1695,
      "Dif": 1696,
      "iter": 1697,
      "proport": 1698,
      "heal": 1699,
      "ership": 1700,
      "raf": 1701,
      "istics": 1702,
      "file": 1703,
      "confident": 1704,
      "operational": 1705,
      "otten": 1706,
      "deliberately": 1707,
      "projects": 1708,
      "organiz": 1709,
      "difficulty": 1710,
      "limitations": 1711,
      "metrics": 1712,
      "deepen": 1713,
      "forgotten": 1714,
      "Different": 1715,
      "proportional": 1716,
      "Fast": 1717,
      "follow": 1718,
      "ue": 1719,
      "into": 1720,
      "indow": 1721,
      "reg": 1722,
      "eristics": 1723,
      "anno": 1724,
      "lect": 1725,
      "level": 1726,
      "char": 1727,
      "aring": 1728,
      "ext": 1729,
      "exist": 1730,
      "rentices": 1731,
      "ateg": 1732,
      "ately": 1733,
      "End": 1734,
      "ize": 1735,
      "acteristics": 1736,
      "designed": 1737,
      "maintain": 1738,
      "indicate": 1739,
      "rittle": 1740,
      "plications": 1741,
      "developers": 1742,
      "yourself": 1743,
      "services": 1744,
      "strateg": 1745,
      "Challen": 1746,
      "Sometimes": 1747,
      "involves": 1748,
      "apprentices": 1749,
      "observability": 1750,
      "persistent": 1751,
      "reason": 1752,
      "indows": 1753,
      "characteristics": 1754,
      "apprenticeship": 1755,
      "Formal": 1756,
      "Know": 1757,
      "Linu": 1758,
      "Windows": 1759,
      "ail": 1760,
      "brittle": 1761,
      "found": 1762,
      "ivi": 1763,
      "mix": 1764,
      "rare": 1765,
      "tes": 1766,
      "yance": 1767,
      "technology": 1768,
      "profile": 1769,
      "cover": 1770,
      "territ": 1771,
      "ivers": 1772,
      "failing": 1773,
      "pris": 1774,
      "memory": 1775,
      "teaches": 1776,
      "providers": 1777,
      "help": 1778,
      "competence": 1779,
      "portability": 1780,
      "capabilities": 1781,
      "macOS": 1782,
      "iteration": 1783,
      "annoyance": 1784,
      "Challenging": 1785,
      "Linux": 1786,
      "territory": 1787,
      "Mo": 1788,
      "crit": 1789,
      "craf": 1790,
      "et": 1791,
      "fin": 1792,
      "ithin": 1793,
      "uman": 1794,
      "within": 1795,
      "inte": 1796,
      "these": 1797,
      "lection": 1798,
      "lies": 1799,
      "load": 1800,
      "needs": 1801,
      "indivi": 1802,
      "resilience": 1803,
      "affect": 1804,
      "signific": 1805,
      "pipe": 1806,
      "methods": 1807,
      "tested": 1808,
      "individual": 1809,
      "significant": 1810,
      "Cor": 1811,
      "Human": 1812,
      "ccess": 1813,
      "fying": 1814,
      "gment": 1815,
      "lis": 1816,
      "lines": 1817,
      "mar": 1818,
      "next": 1819,
      "tal": 1820,
      "internal": 1821,
      "thems": 1822,
      "itoring": 1823,
      "arch": 1824,
      "key": 1825,
      "cial": 1826,
      "understandable": 1827,
      "achi": 1828,
      "hardest": 1829,
      "elves": 1830,
      "incid": 1831,
      "readiness": 1832,
      "after": 1833,
      "surpris": 1834,
      "health": 1835,
      "themselves": 1836,
      "ay": 1837,
      "cal": 1838,
      "den": 1839,
      "fer": 1840,
      "tain": 1841,
      "incorrect": 1842,
      "though": 1843,
      "ative": 1844,
      "ord": 1845,
      "almost": 1846,
      "iting": 1847,
      "stery": 1848,
      "entif": 1849,
      "There": 1850,
      "igr": 1851,
      "olog": 1852,
      "rather": 1853,
      "allow": 1854,
      "acy": 1855,
      "experts": 1856,
      "filed": 1857,
      "veloc": 1858,
      "reviews": 1859,
      "udgment": 1860,
      "obs": 1861,
      "satisfying": 1862,
      "programs": 1863,
      "This": 1864,
      "post": 1865,
      "certain": 1866,
      "multiple": 1867,
      "latency": 1868,
      "medi": 1869,
      "organizational": 1870,
      "craft": 1871,
      "Correct": 1872,
      "achieve": 1873,
      "Dist": 1874,
      "How": 1875,
      "bo": 1876,
      "bal": 1877,
      "call": 1878,
      "dest": 1879,
      "ges": 1880,
      "hing": 1881,
      "jour": 1882,
      "migr": 1883,
      "there": 1884,
      "prog": 1885,
      "ference": 1886,
      "perfect": 1887,
      "face": 1888,
      "plication": 1889,
      "adding": 1890,
      "istory": 1891,
      "management": 1892,
      "saves": 1893,
      "pain": 1894,
      "experiment": 1895,
      "identif": 1896,
      "bottlenecks": 1897,
      "offs": 1898,
      "handling": 1899,
      "computing": 1900,
      "multiplies": 1901,
      "pipelines": 1902,
      "Humans": 1903,
      "thought": 1904,
      "velocity": 1905,
      "ben": 1906,
      "eth": 1907,
      "eld": 1908,
      "hy": 1909,
      "har": 1910,
      "judgment": 1911,
      "loc": 1912,
      "might": 1913,
      "onest": 1914,
      "roll": 1915,
      "che": 1916,
      "start": 1917,
      "immedi": 1918,
      "life": 1919,
      "coming": 1920,
      "und": 1921,
      "respect": 1922,
      "compound": 1923,
      "applications": 1924,
      "changed": 1925,
      "ney": 1926,
      "learnability": 1927,
      "feels": 1928,
      "ownership": 1929,
      "press": 1930,
      "Thin": 1931,
      "logs": 1932,
      "predi": 1933,
      "errors": 1934,
      "possible": 1935,
      "taint": 1936,
      "person": 1937,
      "strong": 1938,
      "APIs": 1939,
      "certaint": 1940,
      "distributed": 1941,
      "carefully": 1942,
      "lame": 1943,
      "following": 1944,
      "Knowing": 1945,
      "rarely": 1946,
      "destination": 1947,
      "journey": 1948,
      "Bre": 1949,
      "Est": 1950,
      "ace": 1951,
      "cles": 1952,
      "gle": 1953,
      "honest": 1954,
      "ner": 1955,
      "py": 1956,
      "sha": 1957,
      "sci": 1958,
      "wo": 1959,
      "rele": 1960,
      "three": 1961,
      "chron": 1962,
      "ablis": 1963,
      "icular": 1964,
      "head": 1965,
      "moment": 1966,
      "uning": 1967,
      "mastery": 1968,
      "resour": 1969,
      "world": 1970,
      "external": 1971,
      "dern": 1972,
      "products": 1973,
      "field": 1974,
      "contribut": 1975,
      "solution": 1976,
      "application": 1977,
      "same": 1978,
      "ults": 1979,
      "structures": 1980,
      "cycles": 1981,
      "correl": 1982,
      "clar": 1983,
      "confidence": 1984,
      "developer": 1985,
      "particular": 1986,
      "specific": 1987,
      "frequent": 1988,
      "attacker": 1989,
      "take": 1990,
      "surface": 1991,
      "ynchron": 1992,
      "monitoring": 1993,
      "explain": 1994,
      "choice": 1995,
      "immediately": 1996,
      "certainty": 1997,
      "resources": 1998,
      "Be": 1999,
      "Res": 2000,
      "au": 2001,
      "cin": 2002,
      "gives": 2003,
      "history": 2004,
      "ias": 2005,
      "rip": 2006,
      "incl": 2007,
      "rection": 2008,
      "ences": 2009,
      "ats": 2010,
      "atig": 2011,
      "oriz": 2012,
      "alone": 2013,
      "tems": 2014,
      "debug": 2015,
      "beats": 2016,
      "modern": 2017,
      "quest": 2018,
      "mean": 2019,
      "intu": 2020,
      "adap": 2021,
      "sequ": 2022,
      "ously": 2023,
      "success": 2024,
      "integration": 2025,
      "breach": 2026,
      "deployments": 2027,
      "provide": 2028,
      "mortems": 2029,
      "Comp": 2030,
      "direction": 2031,
      "Documentation": 2032,
      "scalability": 2033,
      "organization": 2034,
      "Continuous": 2035,
      "Thinking": 2036,
      "Breaking": 2037,
      "shape": 2038,
      "correlates": 2039,
      "atigue": 2040,
      "aut": 2041,
      "cs": 2042,
      "cent": 2043,
      "coun": 2044,
      "even": 2045,
      "fl": 2046,
      "fas": 2047,
      "fatigue": 2048,
      "gap": 2049,
      "sion": 2050,
      "size": 2051,
      "ych": 2052,
      "this": 2053,
      "enough": 2054,
      "enorm": 2055,
      "ancial": 2056,
      "round": 2057,
      "ded": 2058,
      "coord": 2059,
      "ils": 2060,
      "forces": 2061,
      "ases": 2062,
      "today": 2063,
      "becomes": 2064,
      "because": 2065,
      "uncertainty": 2066,
      "cond": 2067,
      "place": 2068,
      "docs": 2069,
      "oosing": 2070,
      "produci": 2071,
      "search": 2072,
      "show": 2073,
      "sub": 2074,
      "Real": 2075,
      "Inconsistent": 2076,
      "necess": 2077,
      "prevention": 2078,
      "plicity": 2079,
      "shipping": 2080,
      "tooling": 2081,
      "community": 2082,
      "keeps": 2083,
      "later": 2084,
      "greater": 2085,
      "avo": 2086,
      "messages": 2087,
      "collection": 2088,
      "existing": 2089,
      "interest": 2090,
      "ological": 2091,
      "obscurity": 2092,
      "postmortems": 2093,
      "Distributed": 2094,
      "progress": 2095,
      "harder": 2096,
      "chema": 2097,
      "Establis": 2098,
      "cinating": 2099,
      "orizon": 2100,
      "fascinating": 2101,
      "Establishing": 2102,
      "CP": 2103,
      "Great": 2104,
      "Qu": 2105,
      "Tra": 2106,
      "We": 2107,
      "You": 2108,
      "ame": 2109,
      "cis": 2110,
      "eith": 2111,
      "frust": 2112,
      "gin": 2113,
      "kind": 2114,
      "lot": 2115,
      "mit": 2116,
      "tas": 2117,
      "tru": 2118,
      "incipl": 2119,
      "ths": 2120,
      "orit": 2121,
      "leads": 2122,
      "itions": 2123,
      "arding": 2124,
      "defa": 2125,
      "proto": 2126,
      "aboration": 2127,
      "states": 2128,
      "coll": 2129,
      "too": 2130,
      "lives": 2131,
      "libr": 2132,
      "ples": 2133,
      "challenges": 2134,
      "access": 2135,
      "weak": 2136,
      "antic": 2137,
      "productive": 2138,
      "ized": 2139,
      "cord": 2140,
      "earch": 2141,
      "pace": 2142,
      "Technology": 2143,
      "prevent": 2144,
      "sometimes": 2145,
      "Deli": 2146,
      "ames": 2147,
      "languages": 2148,
      "partial": 2149,
      "attention": 2150,
      "versus": 2151,
      "tend": 2152,
      "iosity": 2153,
      "computer": 2154,
      "guide": 2155,
      "lasting": 2156,
      "reflect": 2157,
      "ailability": 2158,
      "affects": 2159,
      "incident": 2160,
      "painful": 2161,
      "predict": 2162,
      "ynchronous": 2163,
      "inclu": 2164,
      "adapt": 2165,
      "Complex": 2166,
      "ychological": 2167,
      "necessary": 2168,
      "either": 2169,
      "frustr": 2170,
      "inciples": 2171,
      "Ma": 2172,
      "bias": 2173,
      "cli": 2174,
      "ev": 2175,
      "flex": 2176,
      "hour": 2177,
      "ia": 2178,
      "ides": 2179,
      "num": 2180,
      "ring": 2181,
      "side": 2182,
      "shap": 2183,
      "taking": 2184,
      "tuning": 2185,
      "var": 2186,
      "repres": 2187,
      "reproduci": 2188,
      "record": 2189,
      "ise": 2190,
      "roservices": 2191,
      "lead": 2192,
      "chmar": 2193,
      "stre": 2194,
      "coding": 2195,
      "vement": 2196,
      "ily": 2197,
      "toler": 2198,
      "outlast": 2199,
      "begin": 2200,
      "comments": 2201,
      "moving": 2202,
      "using": 2203,
      "conne": 2204,
      "urn": 2205,
      "research": 2206,
      "vice": 2207,
      "doing": 2208,
      "difference": 2209,
      "such": 2210,
      "values": 2211,
      "izing": 2212,
      "ption": 2213,
      "someone": 2214,
      "Deploy": 2215,
      "principles": 2216,
      "traject": 2217,
      "coura": 2218,
      "longer": 2219,
      "guides": 2220,
      "lay": 2221,
      "choices": 2222,
      "strategy": 2223,
      "reasoning": 2224,
      "critical": 2225,
      "financial": 2226,
      "ferred": 2227,
      "balance": 2228,
      "identifying": 2229,
      "compounds": 2230,
      "pressure": 2231,
      "contributing": 2232,
      "Being": 2233,
      "coordination": 2234,
      "orizontal": 2235,
      "vari": 2236,
      "tolerance": 2237,
      "trajectory": 2238,
      "An": 2239,
      "Blame": 2240,
      "Cur": 2241,
      "Culture": 2242,
      "Er": 2243,
      "Hum": 2244,
      "Im": 2245,
      "ML": 2246,
      "Man": 2247,
      "Ob": 2248,
      "Run": 2249,
      "Scal": 2250,
      "To": 2251,
      "bro": 2252,
      "dat": 2253,
      "dim": 2254,
      "divers": 2255,
      "ger": 2256,
      "ich": 2257,
      "lcoming": 2258,
      "min": 2259,
      "sp": 2260,
      "two": 2261,
      "incent": 2262,
      "erg": 2263,
      "eria": 2264,
      "enance": 2265,
      "ante": 2266,
      "onom": 2267,
      "altru": 2268,
      "lete": 2269,
      "arante": 2270,
      "deci": 2271,
      "deta": 2272,
      "covery": 2273,
      "bur": 2274,
      "estim": 2275,
      "being": 2276,
      "perform": 2277,
      "which": 2278,
      "ressive": 2279,
      "meworks": 2280,
      "expe": 2281,
      "sem": 2282,
      "open": 2283,
      "acity": 2284,
      "welcoming": 2285,
      "designing": 2286,
      "sup": 2287,
      "actually": 2288,
      "appre": 2289,
      "agno": 2290,
      "commit": 2291,
      "strug": 2292,
      "maintenance": 2293,
      "optimize": 2294,
      "constant": 2295,
      "modeling": 2296,
      "cultures": 2297,
      "Contribution": 2298,
      "amoun": 2299,
      "operation": 2300,
      "operations": 2301,
      "deepest": 2302,
      "try": 2303,
      "satisfactions": 2304,
      "microservices": 2305,
      "versioning": 2306,
      "tension": 2307,
      "cognitive": 2308,
      "diagno": 2309,
      "abstractions": 2310,
      "planning": 2311,
      "capacity": 2312,
      "machines": 2313,
      "efficient": 2314,
      "distribution": 2315,
      "ync": 2316,
      "involvement": 2317,
      "simplicity": 2318,
      "strategies": 2319,
      "Model": 2320,
      "criteria": 2321,
      "healthy": 2322,
      "questions": 2323,
      "meaning": 2324,
      "CPU": 2325,
      "Training": 2326,
      "weakness": 2327,
      "Deliberate": 2328,
      "events": 2329,
      "Error": 2330,
      "Humility": 2331,
      "datase": 2332,
      "incentives": 2333,
      "altruistic": 2334,
      "expected": 2335,
      "appreci": 2336,
      "Autom": 2337,
      "Bad": 2338,
      "Col": 2339,
      "La": 2340,
      "Le": 2341,
      "Log": 2342,
      "Mast": 2343,
      "No": 2344,
      "On": 2345,
      "Op": 2346,
      "Open": 2347,
      "Pri": 2348,
      "QL": 2349,
      "Ser": 2350,
      "Software": 2351,
      "Tr": 2352,
      "Taking": 2353,
      "Vers": 2354,
      "When": 2355,
      "boring": 2356,
      "eded": 2357,
      "ffici": 2358,
      "hind": 2359,
      "names": 2360,
      "pu": 2361,
      "rt": 2362,
      "sens": 2363,
      "schema": 2364,
      "would": 2365,
      "zz": 2366,
      "indu": 2367,
      "input": 2368,
      "ane": 2369,
      "atibility": 2370,
      "ond": 2371,
      "align": 2372,
      "ropy": 2373,
      "ars": 2374,
      "ilos": 2375,
      "bust": 2376,
      "ures": 2377,
      "nothing": 2378,
      "uncommon": 2379,
      "univers": 2380,
      "unexpected": 2381,
      "used": 2382,
      "usable": 2383,
      "ift": 2384,
      "concer": 2385,
      "while": 2386,
      "during": 2387,
      "ultim": 2388,
      "resh": 2389,
      "results": 2390,
      "virt": 2391,
      "plat": 2392,
      "ook": 2393,
      "efits": 2394,
      "sharing": 2395,
      "iving": 2396,
      "compatibility": 2397,
      "valuation": 2398,
      "everywhere": 2399,
      "ght": 2400,
      "full": 2401,
      "graph": 2402,
      "needed": 2403,
      "knowing": 2404,
      "elf": 2405,
      "continuously": 2406,
      "psychological": 2407,
      "fitting": 2408,
      "degrades": 2409,
      "higher": 2410,
      "legacy": 2411,
      "Expl": 2412,
      "growing": 2413,
      "implement": 2414,
      "implementation": 2415,
      "interact": 2416,
      "risks": 2417,
      "managing": 2418,
      "miss": 2419,
      "responsible": 2420,
      "point": 2421,
      "offline": 2422,
      "breaks": 2423,
      "priorit": 2424,
      "perspect": 2425,
      "guarante": 2426,
      "signal": 2427,
      "foundation": 2428,
      "covering": 2429,
      "individuals": 2430,
      "benefits": 2431,
      "ethics": 2432,
      "clarity": 2433,
      "enormous": 2434,
      "avoid": 2435,
      "libraries": 2436,
      "hours": 2437,
      "shapes": 2438,
      "reproducibility": 2439,
      "dimens": 2440,
      "spent": 2441,
      "onomous": 2442,
      "deciding": 2443,
      "Automation": 2444,
      "puzz": 2445,
      "concern": 2446,
      "Dis": 2447,
      "Em": 2448,
      "Fa": 2449,
      "Future": 2450,
      "Get": 2451,
      "Ke": 2452,
      "Me": 2453,
      "Over": 2454,
      "Py": 2455,
      "Pre": 2456,
      "User": 2457,
      "ado": 2458,
      "ains": 2459,
      "around": 2460,
      "bly": 2461,
      "cation": 2462,
      "citing": 2463,
      "don": 2464,
      "did": 2465,
      "dyn": 2466,
      "five": 2467,
      "fits": 2468,
      "free": 2469,
      "glo": 2470,
      "greg": 2471,
      "jor": 2472,
      "lar": 2473,
      "looks": 2474,
      "naming": 2475,
      "oli": 2476,
      "rated": 2477,
      "sense": 2478,
      "ues": 2479,
      "uine": 2480,
      "uck": 2481,
      "vation": 2482,
      "encoura": 2483,
      "order": 2484,
      "ism": 2485,
      "rounde": 2486,
      "tem": 2487,
      "star": 2488,
      "stop": 2489,
      "store": 2490,
      "entropy": 2491,
      "coexist": 2492,
      "forms": 2493,
      "modif": 2494,
      "major": 2495,
      "conver": 2496,
      "consequ": 2497,
      "crete": 2498,
      "rency": 2499,
      "mee": 2500,
      "mechan": 2501,
      "separ": 2502,
      "opport": 2503,
      "processing": 2504,
      "were": 2505,
      "discovering": 2506,
      "currency": 2507,
      "Buil": 2508,
      "aging": 2509,
      "veloper": 2510,
      "manage": 2511,
      "managed": 2512,
      "save": 2513,
      "match": 2514,
      "paper": 2515,
      "ught": 2516,
      "functional": 2517,
      "case": 2518,
      "measuring": 2519,
      "willing": 2520,
      "Developer": 2521,
      "amples": 2522,
      "communic": 2523,
      "interpre": 2524,
      "genuine": 2525,
      "idden": 2526,
      "traces": 2527,
      "tracing": 2528,
      "ainable": 2529,
      "server": 2530,
      "serious": 2531,
      "deploying": 2532,
      "general": 2533,
      "jectivity": 2534,
      "frameworks": 2535,
      "outputs": 2536,
      "attract": 2537,
      "poor": 2538,
      "algorithms": 2539,
      "documenting": 2540,
      "underrated": 2541,
      "habits": 2542,
      "servability": 2543,
      "loop": 2544,
      "taught": 2545,
      "efficiency": 2546,
      "optional": 2547,
      "guess": 2548,
      "Choosing": 2549,
      "messy": 2550,
      "message": 2551,
      "philos": 2552,
      "maintainability": 2553,
      "foundations": 2554,
      "intel": 2555,
      "incidents": 2556,
      "afterthought": 2557,
      "surprising": 2558,
      "surprises": 2559,
      "science": 2560,
      "intuition": 2561,
      "autonomous": 2562,
      "shows": 2563,
      "subjectivity": 2564,
      "Quality": 2565,
      "cision": 2566,
      "mitting": 2567,
      "tasks": 2568,
      "including": 2569,
      "flexibility": 2570,
      "connect": 2571,
      "Blameless": 2572,
      "Curiosity": 2573,
      "Observability": 2574,
      "diverse": 2575,
      "details": 2576,
      "support": 2577,
      "struggle": 2578,
      "amount": 2579,
      "appreciate": 2580,
      "Mastery": 2581,
      "Optimiz": 2582,
      "Trans": 2583,
      "universal": 2584,
      "Explain": 2585,
      "guarantees": 2586,
      "Keep": 2587,
      "dynam": 2588,
      "larger": 2589,
      "rounded": 2590,
      "modify": 2591,
      "interpreted": 2592,
      "philosop": 2593,
      "Av": 2594,
      "Bl": 2595,
      "Clear": 2596,
      "CAP": 2597,
      "HT": 2598,
      "High": 2599,
      "Long": 2600,
      "Mic": 2601,
      "Part": 2602,
      "RE": 2603,
      "SS": 2604,
      "Sc": 2605,
      "Simple": 2606,
      "Tim": 2607,
      "UX": 2608,
      "Ver": 2609,
      "ake": 2610,
      "bl": 2611,
      "batch": 2612,
      "bile": 2613,
      "bloc": 2614,
      "blame": 2615,
      "cru": 2616,
      "dent": 2617,
      "date": 2618,
      "done": 2619,
      "ec": 2620,
      "ever": 2621,
      "eces": 2622,
      "evaluation": 2623,
      "gift": 2624,
      "hidden": 2625,
      "ire": 2626,
      "iding": 2627,
      "ike": 2628,
      "nat": 2629,
      "non": 2630,
      "night": 2631,
      "pol": 2632,
      "pill": 2633,
      "rate": 2634,
      "tical": 2635,
      "tak": 2636,
      "treat": 2637,
      "tention": 2638,
      "went": 2639,
      "warding": 2640,
      "yond": 2641,
      "rewarding": 2642,
      "then": 2643,
      "erge": 2644,
      "erical": 2645,
      "erred": 2646,
      "ancy": 2647,
      "isol": 2648,
      "robust": 2649,
      "lebr": 2650,
      "theore": 2651,
      "dex": 2652,
      "abel": 2653,
      "stack": 2654,
      "story": 2655,
      "stay": 2656,
      "ands": 2657,
      "imal": 2658,
      "implications": 2659,
      "ask": 2660,
      "behind": 2661,
      "areas": 2662,
      "hed": 2663,
      "novation": 2664,
      "lict": 2665,
      "move": 2666,
      "mooth": 2667,
      "mobile": 2668,
      "unching": 2669,
      "mag": 2670,
      "quer": 2671,
      "igur": 2672,
      "rap": 2673,
      "ressing": 2674,
      "tead": 2675,
      "exp": 2676,
      "extra": 2677,
      "examples": 2678,
      "efs": 2679,
      "adiness": 2680,
      "ivacy": 2681,
      "disk": 2682,
      "Readiness": 2683,
      "solves": 2684,
      "apers": 2685,
      "effects": 2686,
      "systemat": 2687,
      "manship": 2688,
      "pair": 2689,
      "views": 2690,
      "overhead": 2691,
      "practical": 2692,
      "scrip": 2693,
      "else": 2694,
      "vision": 2695,
      "irness": 2696,
      "costs": 2697,
      "paths": 2698,
      "beliefs": 2699,
      "Prog": 2700,
      "grows": 2701,
      "leading": 2702,
      "instead": 2703,
      "idth": 2704,
      "parts": 2705,
      "trained": 2706,
      "generation": 2707,
      "generally": 2708,
      "fixing": 2709,
      "addressing": 2710,
      "misleading": 2711,
      "responsi": 2712,
      "measures": 2713,
      "appropri": 2714,
      "pose": 2715,
      "See": 2716,
      "version": 2717,
      "consistently": 2718,
      "Comm": 2719,
      "humans": 2720,
      "happy": 2721,
      "career": 2722,
      "direct": 2723,
      "eventual": 2724,
      "networks": 2725,
      "look": 2726,
      "engagement": 2727,
      "Attention": 2728,
      "component": 2729,
      "fundamentals": 2730,
      "capt": 2731,
      "capability": 2732,
      "ready": 2733,
      "environment": 2734,
      "happening": 2735,
      "conflict": 2736,
      "downtime": 2737,
      "months": 2738,
      "monoli": 2739,
      "availability": 2740,
      "Consistent": 2741,
      "observable": 2742,
      "exploring": 2743,
      "runbooks": 2744,
      "setting": 2745,
      "simpl": 2746,
      "tradeoffs": 2747,
      "follows": 2748,
      "Most": 2749,
      "allows": 2750,
      "migration": 2751,
      "migrations": 2752,
      "perfectly": 2753,
      "identify": 2754,
      "benchmar": 2755,
      "rollback": 2756,
      "lifelong": 2757,
      "personal": 2758,
      "author": 2759,
      "intuitive": 2760,
      "flu": 2761,
      "flag": 2762,
      "conditions": 2763,
      "Web": 2764,
      "defaults": 2765,
      "collaboration": 2766,
      "accessible": 2767,
      "adaptable": 2768,
      "Complexity": 2769,
      "numerical": 2770,
      "stream": 2771,
      "Scalability": 2772,
      "burden": 2773,
      "constantly": 2774,
      "diagnose": 2775,
      "Models": 2776,
      "meaningful": 2777,
      "dataset": 2778,
      "Launching": 2779,
      "Logging": 2780,
      "Version": 2781,
      "prioritizes": 2782,
      "Getting": 2783,
      "consequences": 2784,
      "meeting": 2785,
      "willingness": 2786,
      "Keeping": 2787,
      "dynamics": 2788,
      "Vertical": 2789,
      "natural": 2790,
      "pillars": 2791,
      "taken": 2792,
      "theorem": 2793,
      "CI": 2794,
      "CL": 2795,
      "DN": 2796,
      "Even": 2797,
      "Effici": 2798,
      "Fin": 2799,
      "Fail": 2800,
      "Go": 2801,
      "Hy": 2802,
      "Horizontal": 2803,
      "Lat": 2804,
      "Low": 2805,
      "Like": 2806,
      "Or": 2807,
      "Po": 2808,
      "Pr": 2809,
      "Plat": 2810,
      "SL": 2811,
      "ST": 2812,
      "Sust": 2813,
      "Slow": 2814,
      "TP": 2815,
      "Two": 2816,
      "Wor": 2817,
      "Whe": 2818,
      "ae": 2819,
      "ader": 2820,
      "aos": 2821,
      "away": 2822,
      "automat": 2823,
      "bar": 2824,
      "band": 2825,
      "bra": 2826,
      "bage": 2827,
      "blog": 2828,
      "book": 2829,
      "cul": 2830,
      "caring": 2831,
      "datab": 2832,
      "fron": 2833,
      "final": 2834,
      "give": 2835,
      "gence": 2836,
      "horizontal": 2837,
      "ior": 2838,
      "ied": 2839,
      "iences": 2840,
      "job": 2841,
      "laboration": 2842,
      "label": 2843,
      "mpot": 2844,
      "normal": 2845,
      "native": 2846,
      "por": 2847,
      "poth": 2848,
      "ral": 2849,
      "sch": 2850,
      "sync": 2851,
      "smooth": 2852,
      "tic": 2853,
      "tics": 2854,
      "vul": 2855,
      "width": 2856,
      "zone": 2857,
      "zero": 2858,
      "inst": 2859,
      "inferred": 2860,
      "influ": 2861,
      "reen": 2862,
      "repe": 2863,
      "really": 2864,
      "restruct": 2865,
      "remem": 2866,
      "replace": 2867,
      "thon": 2868,
      "once": 2869,
      "online": 2870,
      "ories": 2871,
      "isdo": 2872,
      "let": 2873,
      "theory": 2874,
      "choosing": 2875,
      "chaos": 2876,
      "arily": 2877,
      "arbage": 2878,
      "detect": 2879,
      "determ": 2880,
      "abor": 2881,
      "stes": 2882,
      "stry": 2883,
      "andom": 2884,
      "core": 2885,
      "ased": 2886,
      "asable": 2887,
      "bus": 2888,
      "top": 2889,
      "outperform": 2890,
      "beyond": 2891,
      "moves": 2892,
      "mentally": 2893,
      "unt": 2894,
      "unless": 2895,
      "unlimited": 2896,
      "fam": 2897,
      "They": 2898,
      "racy": 2899,
      "concurrent": 2900,
      "concurrency": 2901,
      "vid": 2902,
      "exciting": 2903,
      "exec": 2904,
      "adig": 2905,
      "admitting": 2906,
      "cident": 2907,
      "accru": 2908,
      "factor": 2909,
      "short": 2910,
      "compil": 2911,
      "sust": 2912,
      "sume": 2913,
      "discrete": 2914,
      "wastes": 2915,
      "Revis": 2916,
      "izations": 2917,
      "apps": 2918,
      "gradual": 2919,
      "systemic": 2920,
      "aggreg": 2921,
      "manner": 2922,
      "paying": 2923,
      "disciplined": 2924,
      "riction": 2925,
      "increased": 2926,
      "ultane": 2927,
      "command": 2928,
      "Int": 2929,
      "cycle": 2930,
      "negle": 2931,
      "overall": 2932,
      "came": 2933,
      "safely": 2934,
      "curacy": 2935,
      "correctly": 2936,
      "Str": 2937,
      "daily": 2938,
      "Context": 2939,
      "interviews": 2940,
      "trics": 2941,
      "focusing": 2942,
      "focuses": 2943,
      "present": 2944,
      "serving": 2945,
      "servers": 2946,
      "fixes": 2947,
      "going": 2948,
      "These": 2949,
      "bring": 2950,
      "preferred": 2951,
      "stateless": 2952,
      "transform": 2953,
      "ends": 2954,
      "replicas": 2955,
      "capable": 2956,
      "readability": 2957,
      "Graph": 2958,
      "drives": 2959,
      "multi": 2960,
      "interface": 2961,
      "computers": 2962,
      "computation": 2963,
      "downstream": 2964,
      "ensuring": 2965,
      "typically": 2966,
      "Clar": 2967,
      "parame": 2968,
      "paradig": 2969,
      "pieces": 2970,
      "limiting": 2971,
      "running": 2972,
      "refers": 2973,
      "referred": 2974,
      "simultane": 2975,
      "tradeoff": 2976,
      "maintainable": 2977,
      "ology": 2978,
      "achieved": 2979,
      "board": 2980,
      "perfection": 2981,
      "experimenting": 2982,
      "nerabilities": 2983,
      "relevant": 2984,
      "releasable": 2985,
      "clarif": 2986,
      "specifications": 2987,
      "successes": 2988,
      "interesting": 2989,
      "default": 2990,
      "protocol": 2991,
      "collabor": 2992,
      "client": 2993,
      "clients": 2994,
      "represent": 2995,
      "represents": 2996,
      "leadership": 2997,
      "Deployment": 2998,
      "variance": 2999
    },
    "merges": [
      [
        "i",
        "n"
      ],
      [
        "r",
        "e"
      ],
      [
        "t",
        "h"
      ],
      [
        "e",
        "r"
      ],
      [
        "e",
        "n"
      ],
      [
        "in",
        "g"
      ],
      [
        "e",
        "s"
      ],
      [
        "a",
        "n"
      ],
      [
        "a",
        "t"
      ],
      [
        "o",
        "n"
      ],
      [
        "o",
        "r"
      ],
      [
        "a",
        "l"
      ],
      [
        "i",
        "s"
      ],
      [
        "r",
        "o"
      ],
      [
        "t",
        "e"
      ],
      [
        "l",
        "e"
      ],
      [
        "th",
        "e"
      ],
      [
        "i",
        "on"
      ],
      [
        "c",
        "h"
      ],
      [
        "o",
        "f"
      ],
      [
        "c",
        "t"
      ],
      [
        "o",
        "u"
      ],
      [
        "i",
        "t"
      ],
      [
        "a",
        "r"
      ],
      [
        "d",
        "e"
      ],
      [
        "p",
        "ro"
      ],
      [
        "a",
        "b"
      ],
      [
        "s",
        "t"
      ],
      [
        "en",
        "t"
      ],
      [
        "an",
        "d"
      ],
      [
        "c",
        "o"
      ],
      [
        "v",
        "e"
      ],
      [
        "i",
        "l"
      ],
      [
        "c",
        "e"
      ],
      [
        "i",
        "m"
      ],
      [
        "f",
        "or"
      ],
      [
        "a",
        "s"
      ],
      [
        "g",
        "e"
      ],
      [
        "in",
        "e"
      ],
      [
        "b",
        "u"
      ],
      [
        "t",
        "o"
      ],
      [
        "th",
        "at"
      ],
      [
        "ou",
        "t"
      ],
      [
        "m",
        "s"
      ],
      [
        "es",
        "t"
      ],
      [
        "b",
        "e"
      ],
      [
        "i",
        "c"
      ],
      [
        "a",
        "re"
      ],
      [
        "l",
        "y"
      ],
      [
        "h",
        "e"
      ],
      [
        "u",
        "re"
      ],
      [
        "er",
        "s"
      ],
      [
        "n",
        "o"
      ],
      [
        "y",
        "s"
      ],
      [
        "g",
        "ine"
      ],
      [
        "l",
        "i"
      ],
      [
        "co",
        "m"
      ],
      [
        "f",
        "e"
      ],
      [
        "m",
        "o"
      ],
      [
        "ion",
        "s"
      ],
      [
        "it",
        "y"
      ],
      [
        "d",
        "ing"
      ],
      [
        "v",
        "er"
      ],
      [
        "es",
        "s"
      ],
      [
        "p",
        "er"
      ],
      [
        "m",
        "ent"
      ],
      [
        "u",
        "n"
      ],
      [
        "f",
        "a"
      ],
      [
        "T",
        "he"
      ],
      [
        "i",
        "te"
      ],
      [
        "ys",
        "te"
      ],
      [
        "m",
        "a"
      ],
      [
        "th",
        "in"
      ],
      [
        "q",
        "u"
      ],
      [
        "s",
        "yste"
      ],
      [
        "ab",
        "out"
      ],
      [
        "at",
        "ion"
      ],
      [
        "en",
        "gine"
      ],
      [
        "i",
        "g"
      ],
      [
        "i",
        "th"
      ],
      [
        "thin",
        "k"
      ],
      [
        "o",
        "l"
      ],
      [
        "no",
        "t"
      ],
      [
        "u",
        "s"
      ],
      [
        "r",
        "a"
      ],
      [
        "i",
        "f"
      ],
      [
        "w",
        "ith"
      ],
      [
        "c",
        "on"
      ],
      [
        "w",
        "h"
      ],
      [
        "k",
        "e"
      ],
      [
        "b",
        "le"
      ],
      [
        "al",
        "l"
      ],
      [
        "for",
        "m"
      ],
      [
        "d",
        "u"
      ],
      [
        "u",
        "r"
      ],
      [
        "er",
        "ing"
      ],
      [
        "u",
        "l"
      ],
      [
        "an",
        "ce"
      ],
      [
        "u",
        "t"
      ],
      [
        "il",
        "ding"
      ],
      [
        "re",
        "s"
      ],
      [
        "w",
        "or"
      ],
      [
        "t",
        "er"
      ],
      [
        "syste",
        "ms"
      ],
      [
        "e",
        "d"
      ],
      [
        "re",
        "qu"
      ],
      [
        "ch",
        "ite"
      ],
      [
        "chite",
        "ct"
      ],
      [
        "t",
        "est"
      ],
      [
        "h",
        "a"
      ],
      [
        "o",
        "y"
      ],
      [
        "ab",
        "le"
      ],
      [
        "c",
        "re"
      ],
      [
        "i",
        "ve"
      ],
      [
        "v",
        "i"
      ],
      [
        "re",
        "n"
      ],
      [
        "m",
        "e"
      ],
      [
        "le",
        "ar"
      ],
      [
        "requ",
        "i"
      ],
      [
        "engine",
        "ering"
      ],
      [
        "wor",
        "k"
      ],
      [
        "te",
        "a"
      ],
      [
        "be",
        "t"
      ],
      [
        "co",
        "de"
      ],
      [
        "p",
        "l"
      ],
      [
        "mo",
        "re"
      ],
      [
        "form",
        "ance"
      ],
      [
        "e",
        "x"
      ],
      [
        "d",
        "o"
      ],
      [
        "ren",
        "t"
      ],
      [
        "o",
        "o"
      ],
      [
        "ic",
        "al"
      ],
      [
        "ar",
        "chitect"
      ],
      [
        "pro",
        "ble"
      ],
      [
        "j",
        "oy"
      ],
      [
        "e",
        "f"
      ],
      [
        "en",
        "joy"
      ],
      [
        "d",
        "er"
      ],
      [
        "bu",
        "ilding"
      ],
      [
        "c",
        "an"
      ],
      [
        "im",
        "pro"
      ],
      [
        "ch",
        "an"
      ],
      [
        "st",
        "and"
      ],
      [
        "in",
        "t"
      ],
      [
        "pro",
        "du"
      ],
      [
        "im",
        "p"
      ],
      [
        "all",
        "en"
      ],
      [
        "li",
        "ke"
      ],
      [
        "ch",
        "allen"
      ],
      [
        "ro",
        "m"
      ],
      [
        "f",
        "rom"
      ],
      [
        "t",
        "im"
      ],
      [
        "a",
        "d"
      ],
      [
        "challen",
        "ge"
      ],
      [
        "ar",
        "d"
      ],
      [
        "p",
        "e"
      ],
      [
        "ch",
        "n"
      ],
      [
        "r",
        "u"
      ],
      [
        "v",
        "ol"
      ],
      [
        "c",
        "ess"
      ],
      [
        "der",
        "stand"
      ],
      [
        "ver",
        "y"
      ],
      [
        "n",
        "ing"
      ],
      [
        "cre",
        "at"
      ],
      [
        "chn",
        "ical"
      ],
      [
        "s",
        "e"
      ],
      [
        "is",
        "t"
      ],
      [
        "o",
        "p"
      ],
      [
        "per",
        "formance"
      ],
      [
        "oo",
        "d"
      ],
      [
        "c",
        "i"
      ],
      [
        "bu",
        "g"
      ],
      [
        "requi",
        "res"
      ],
      [
        "de",
        "c"
      ],
      [
        "a",
        "c"
      ],
      [
        "pro",
        "cess"
      ],
      [
        "bet",
        "ter"
      ],
      [
        "fa",
        "ct"
      ],
      [
        "o",
        "w"
      ],
      [
        "proble",
        "ms"
      ],
      [
        "te",
        "chnical"
      ],
      [
        "un",
        "derstand"
      ],
      [
        "s",
        "h"
      ],
      [
        "e",
        "w"
      ],
      [
        "y",
        "ou"
      ],
      [
        "dec",
        "is"
      ],
      [
        "ha",
        "ve"
      ],
      [
        "w",
        "e"
      ],
      [
        "th",
        "an"
      ],
      [
        "i",
        "v"
      ],
      [
        "an",
        "t"
      ],
      [
        "d",
        "es"
      ],
      [
        "of",
        "t"
      ],
      [
        "or",
        "ing"
      ],
      [
        "it",
        "s"
      ],
      [
        "decis",
        "ions"
      ],
      [
        "l",
        "es"
      ],
      [
        "d",
        "if"
      ],
      [
        "at",
        "e"
      ],
      [
        "com",
        "p"
      ],
      [
        "fa",
        "il"
      ],
      [
        "a",
        "ge"
      ],
      [
        "ou",
        "s"
      ],
      [
        "bu",
        "t"
      ],
      [
        "v",
        "al"
      ],
      [
        "v",
        "es"
      ],
      [
        "fe",
        "rent"
      ],
      [
        "s",
        "u"
      ],
      [
        "fact",
        "oring"
      ],
      [
        "d",
        "is"
      ],
      [
        "g",
        "r"
      ],
      [
        "te",
        "gr"
      ],
      [
        "with",
        "out"
      ],
      [
        "ent",
        "s"
      ],
      [
        "a",
        "k"
      ],
      [
        "e",
        "vol"
      ],
      [
        "a",
        "ch"
      ],
      [
        "p",
        "en"
      ],
      [
        "w",
        "a"
      ],
      [
        "il",
        "ity"
      ],
      [
        "dif",
        "ferent"
      ],
      [
        "o",
        "t"
      ],
      [
        "at",
        "ure"
      ],
      [
        "ment",
        "s"
      ],
      [
        "ge",
        "t"
      ],
      [
        "on",
        "e"
      ],
      [
        "E",
        "n"
      ],
      [
        "o",
        "c"
      ],
      [
        "ut",
        "ion"
      ],
      [
        "en",
        "ce"
      ],
      [
        "val",
        "u"
      ],
      [
        "ma",
        "in"
      ],
      [
        "engine",
        "ers"
      ],
      [
        "R",
        "e"
      ],
      [
        "b",
        "est"
      ],
      [
        "produ",
        "ct"
      ],
      [
        "i",
        "z"
      ],
      [
        "i",
        "p"
      ],
      [
        "s",
        "o"
      ],
      [
        "fe",
        "ct"
      ],
      [
        "mo",
        "st"
      ],
      [
        "wh",
        "o"
      ],
      [
        "ex",
        "per"
      ],
      [
        "e",
        "very"
      ],
      [
        "en",
        "ab"
      ],
      [
        "g",
        "h"
      ],
      [
        "enab",
        "les"
      ],
      [
        "c",
        "es"
      ],
      [
        "wh",
        "at"
      ],
      [
        "can",
        "not"
      ],
      [
        "tim",
        "e"
      ],
      [
        "ur",
        "al"
      ],
      [
        "c",
        "ur"
      ],
      [
        "lear",
        "ning"
      ],
      [
        "G",
        "ood"
      ],
      [
        "f",
        "i"
      ],
      [
        "architect",
        "ural"
      ],
      [
        "in",
        "tegr"
      ],
      [
        "tea",
        "m"
      ],
      [
        "a",
        "ct"
      ],
      [
        "il",
        "l"
      ],
      [
        "or",
        "t"
      ],
      [
        "i",
        "ble"
      ],
      [
        "ar",
        "y"
      ],
      [
        "t",
        "ing"
      ],
      [
        "w",
        "r"
      ],
      [
        "ent",
        "ly"
      ],
      [
        "con",
        "t"
      ],
      [
        "chan",
        "g"
      ],
      [
        "s",
        "ol"
      ],
      [
        "i",
        "es"
      ],
      [
        "tea",
        "ms"
      ],
      [
        "a",
        "p"
      ],
      [
        "chan",
        "ge"
      ],
      [
        "integr",
        "ity"
      ],
      [
        "ef",
        "fect"
      ],
      [
        "ver",
        "if"
      ],
      [
        "ig",
        "h"
      ],
      [
        "ig",
        "n"
      ],
      [
        "test",
        "s"
      ],
      [
        "wh",
        "en"
      ],
      [
        "f",
        "ul"
      ],
      [
        "re",
        "factoring"
      ],
      [
        "architect",
        "ure"
      ],
      [
        "com",
        "es"
      ],
      [
        "g",
        "ra"
      ],
      [
        "al",
        "ly"
      ],
      [
        "En",
        "gine"
      ],
      [
        "think",
        "ing"
      ],
      [
        "iv",
        "ity"
      ],
      [
        "h",
        "ard"
      ],
      [
        "m",
        "all"
      ],
      [
        "l",
        "l"
      ],
      [
        "b",
        "re"
      ],
      [
        "o",
        "th"
      ],
      [
        "re",
        "li"
      ],
      [
        "syste",
        "m"
      ],
      [
        "B",
        "u"
      ],
      [
        "f",
        "un"
      ],
      [
        "c",
        "or"
      ],
      [
        "a",
        "g"
      ],
      [
        "e",
        "ar"
      ],
      [
        "re",
        "v"
      ],
      [
        "pen",
        "d"
      ],
      [
        "te",
        "d"
      ],
      [
        "ra",
        "ct"
      ],
      [
        "ve",
        "l"
      ],
      [
        "m",
        "an"
      ],
      [
        "v",
        "ing"
      ],
      [
        "oft",
        "en"
      ],
      [
        "Bu",
        "ilding"
      ],
      [
        "P",
        "er"
      ],
      [
        "s",
        "a"
      ],
      [
        "de",
        "pend"
      ],
      [
        "ci",
        "pl"
      ],
      [
        "m",
        "at"
      ],
      [
        "p",
        "a"
      ],
      [
        "out",
        "comes"
      ],
      [
        "n",
        "ess"
      ],
      [
        "vi",
        "ew"
      ],
      [
        "dis",
        "cipl"
      ],
      [
        "des",
        "ign"
      ],
      [
        "work",
        "ing"
      ],
      [
        "discipl",
        "ine"
      ],
      [
        "u",
        "gh"
      ],
      [
        "r",
        "i"
      ],
      [
        "re",
        "view"
      ],
      [
        "c",
        "lear"
      ],
      [
        "i",
        "ence"
      ],
      [
        "us",
        "ers"
      ],
      [
        "fe",
        "ature"
      ],
      [
        "th",
        "ro"
      ],
      [
        "imp",
        "ort"
      ],
      [
        "thro",
        "ugh"
      ],
      [
        "at",
        "ch"
      ],
      [
        "chang",
        "es"
      ],
      [
        "ment",
        "al"
      ],
      [
        "in",
        "cre"
      ],
      [
        "for",
        "t"
      ],
      [
        "impro",
        "ves"
      ],
      [
        "bu",
        "il"
      ],
      [
        "ul",
        "t"
      ],
      [
        "impro",
        "ve"
      ],
      [
        "ru",
        "st"
      ],
      [
        "com",
        "m"
      ],
      [
        "ma",
        "ke"
      ],
      [
        "creat",
        "ivity"
      ],
      [
        "do",
        "main"
      ],
      [
        "l",
        "d"
      ],
      [
        "th",
        "ing"
      ],
      [
        "ic",
        "ation"
      ],
      [
        "creat",
        "ive"
      ],
      [
        "I",
        "n"
      ],
      [
        "ab",
        "ility"
      ],
      [
        "st",
        "ru"
      ],
      [
        "d",
        "get"
      ],
      [
        "s",
        "mall"
      ],
      [
        "bu",
        "dget"
      ],
      [
        "bet",
        "we"
      ],
      [
        "betwe",
        "en"
      ],
      [
        "requi",
        "re"
      ],
      [
        "at",
        "ions"
      ],
      [
        "be",
        "ha"
      ],
      [
        "vi",
        "or"
      ],
      [
        "fun",
        "ct"
      ],
      [
        "beha",
        "vior"
      ],
      [
        "fail",
        "ure"
      ],
      [
        "i",
        "ce"
      ],
      [
        "ak",
        "ing"
      ],
      [
        "wa",
        "ys"
      ],
      [
        "e",
        "p"
      ],
      [
        "verif",
        "y"
      ],
      [
        "stru",
        "ct"
      ],
      [
        "l",
        "o"
      ],
      [
        "w",
        "are"
      ],
      [
        "p",
        "t"
      ],
      [
        "u",
        "st"
      ],
      [
        "in",
        "u"
      ],
      [
        "ef",
        "fort"
      ],
      [
        "b",
        "as"
      ],
      [
        "imp",
        "act"
      ],
      [
        "no",
        "w"
      ],
      [
        "ma",
        "int"
      ],
      [
        "struct",
        "ure"
      ],
      [
        "b",
        "y"
      ],
      [
        "are",
        "d"
      ],
      [
        "c",
        "y"
      ],
      [
        "n",
        "e"
      ],
      [
        "ion",
        "al"
      ],
      [
        "n",
        "ew"
      ],
      [
        "o",
        "ver"
      ],
      [
        "t",
        "y"
      ],
      [
        "evol",
        "ution"
      ],
      [
        "ou",
        "ld"
      ],
      [
        "p",
        "ract"
      ],
      [
        "v",
        "ent"
      ],
      [
        "code",
        "bas"
      ],
      [
        "maint",
        "a"
      ],
      [
        "re",
        "du"
      ],
      [
        "on",
        "g"
      ],
      [
        "o",
        "s"
      ],
      [
        "s",
        "c"
      ],
      [
        "e",
        "as"
      ],
      [
        "s",
        "pe"
      ],
      [
        "de",
        "li"
      ],
      [
        "us",
        "e"
      ],
      [
        "tim",
        "iz"
      ],
      [
        "exper",
        "im"
      ],
      [
        "Engine",
        "ering"
      ],
      [
        "valu",
        "able"
      ],
      [
        "bug",
        "s"
      ],
      [
        "A",
        "r"
      ],
      [
        "chitect",
        "ure"
      ],
      [
        "Ar",
        "chitecture"
      ],
      [
        "T",
        "est"
      ],
      [
        "c",
        "a"
      ],
      [
        "al",
        "so"
      ],
      [
        "sa",
        "fe"
      ],
      [
        "inu",
        "ous"
      ],
      [
        "g",
        "ood"
      ],
      [
        "op",
        "timiz"
      ],
      [
        "u",
        "d"
      ],
      [
        "cor",
        "re"
      ],
      [
        "l",
        "im"
      ],
      [
        "ut",
        "ions"
      ],
      [
        "re",
        "al"
      ],
      [
        "sol",
        "utions"
      ],
      [
        "buil",
        "d"
      ],
      [
        "ine",
        "d"
      ],
      [
        "k",
        "now"
      ],
      [
        "experim",
        "ents"
      ],
      [
        "c",
        "u"
      ],
      [
        "e",
        "l"
      ],
      [
        "c",
        "as"
      ],
      [
        "cont",
        "inuous"
      ],
      [
        "incre",
        "mental"
      ],
      [
        "test",
        "ing"
      ],
      [
        "an",
        "s"
      ],
      [
        "T",
        "e"
      ],
      [
        "r",
        "ig"
      ],
      [
        "pro",
        "per"
      ],
      [
        "me",
        "as"
      ],
      [
        "Per",
        "formance"
      ],
      [
        "g",
        "ing"
      ],
      [
        "j",
        "ust"
      ],
      [
        "sh",
        "ared"
      ],
      [
        "b",
        "t"
      ],
      [
        "v",
        "is"
      ],
      [
        "h",
        "ip"
      ],
      [
        "in",
        "d"
      ],
      [
        "con",
        "st"
      ],
      [
        "oft",
        "ware"
      ],
      [
        "su",
        "ite"
      ],
      [
        "u",
        "to"
      ],
      [
        "proble",
        "m"
      ],
      [
        "p",
        "rev"
      ],
      [
        "igh",
        "t"
      ],
      [
        "i",
        "r"
      ],
      [
        "co",
        "st"
      ],
      [
        "ac",
        "k"
      ],
      [
        "effect",
        "ive"
      ],
      [
        "pa",
        "th"
      ],
      [
        "at",
        "es"
      ],
      [
        "ou",
        "r"
      ],
      [
        "fa",
        "st"
      ],
      [
        "every",
        "one"
      ],
      [
        "the",
        "y"
      ],
      [
        "int",
        "s"
      ],
      [
        "s",
        "oftware"
      ],
      [
        "w",
        "ill"
      ],
      [
        "e",
        "ve"
      ],
      [
        "r",
        "it"
      ],
      [
        "require",
        "ments"
      ],
      [
        "const",
        "ra"
      ],
      [
        "an",
        "g"
      ],
      [
        "le",
        "x"
      ],
      [
        "we",
        "ll"
      ],
      [
        "cur",
        "rent"
      ],
      [
        "p",
        "s"
      ],
      [
        "o",
        "re"
      ],
      [
        "vis",
        "ible"
      ],
      [
        "ro",
        "w"
      ],
      [
        "impro",
        "ving"
      ],
      [
        "p",
        "at"
      ],
      [
        "t",
        "rust"
      ],
      [
        "re",
        "ve"
      ],
      [
        "ar",
        "ge"
      ],
      [
        "wa",
        "y"
      ],
      [
        "reve",
        "al"
      ],
      [
        "lear",
        "n"
      ],
      [
        "c",
        "atch"
      ],
      [
        "in",
        "depend"
      ],
      [
        "al",
        "e"
      ],
      [
        "v",
        "est"
      ],
      [
        "be",
        "li"
      ],
      [
        "domain",
        "s"
      ],
      [
        "f",
        "it"
      ],
      [
        "u",
        "ally"
      ],
      [
        "at",
        "a"
      ],
      [
        "ist",
        "s"
      ],
      [
        "in",
        "ding"
      ],
      [
        "re",
        "at"
      ],
      [
        "prev",
        "ents"
      ],
      [
        "al",
        "ists"
      ],
      [
        "de",
        "bt"
      ],
      [
        "com",
        "b"
      ],
      [
        "funct",
        "ions"
      ],
      [
        "produ",
        "ce"
      ],
      [
        "evol",
        "ve"
      ],
      [
        "valu",
        "e"
      ],
      [
        "bre",
        "aking"
      ],
      [
        "beli",
        "eve"
      ],
      [
        "h",
        "ow"
      ],
      [
        "pl",
        "ic"
      ],
      [
        "mainta",
        "ined"
      ],
      [
        "b",
        "ility"
      ],
      [
        "corre",
        "ct"
      ],
      [
        "ar",
        "t"
      ],
      [
        "vol",
        "ution"
      ],
      [
        "ou",
        "n"
      ],
      [
        "com",
        "e"
      ],
      [
        "so",
        "me"
      ],
      [
        "codebas",
        "e"
      ],
      [
        "redu",
        "ces"
      ],
      [
        "D",
        "e"
      ],
      [
        "E",
        "volution"
      ],
      [
        "P",
        "ro"
      ],
      [
        "t",
        "ies"
      ],
      [
        "w",
        "ant"
      ],
      [
        "pract",
        "ice"
      ],
      [
        "proper",
        "ties"
      ],
      [
        "fit",
        "ness"
      ],
      [
        "Evolution",
        "ary"
      ],
      [
        "de",
        "l"
      ],
      [
        "comp",
        "lex"
      ],
      [
        "reli",
        "able"
      ],
      [
        "f",
        "ore"
      ],
      [
        "h",
        "as"
      ],
      [
        "co",
        "he"
      ],
      [
        "ac",
        "ce"
      ],
      [
        "the",
        "ir"
      ],
      [
        "b",
        "oth"
      ],
      [
        "fe",
        "el"
      ],
      [
        "m",
        "u"
      ],
      [
        "en",
        "cy"
      ],
      [
        "be",
        "fore"
      ],
      [
        "ow",
        "n"
      ],
      [
        "ult",
        "ure"
      ],
      [
        "mu",
        "ch"
      ],
      [
        "i",
        "bility"
      ],
      [
        "bug",
        "ging"
      ],
      [
        "R",
        "s"
      ],
      [
        "P",
        "Rs"
      ],
      [
        "c",
        "k"
      ],
      [
        "ter",
        "n"
      ],
      [
        "p",
        "ut"
      ],
      [
        "de",
        "gra"
      ],
      [
        "us",
        "er"
      ],
      [
        "feature",
        "s"
      ],
      [
        "S",
        "t"
      ],
      [
        "on",
        "ly"
      ],
      [
        "mo",
        "del"
      ],
      [
        "d",
        "a"
      ],
      [
        "i",
        "al"
      ],
      [
        "o",
        "b"
      ],
      [
        "s",
        "ing"
      ],
      [
        "re",
        "l"
      ],
      [
        "al",
        "ways"
      ],
      [
        "as",
        "s"
      ],
      [
        "import",
        "ance"
      ],
      [
        "d",
        "r"
      ],
      [
        "h",
        "igh"
      ],
      [
        "w",
        "he"
      ],
      [
        "le",
        "g"
      ],
      [
        "wr",
        "ong"
      ],
      [
        "E",
        "x"
      ],
      [
        "c",
        "ulture"
      ],
      [
        "p",
        "r"
      ],
      [
        "int",
        "ent"
      ],
      [
        "fi",
        "d"
      ],
      [
        "constra",
        "ints"
      ],
      [
        "C",
        "on"
      ],
      [
        "i",
        "de"
      ],
      [
        "lim",
        "its"
      ],
      [
        "c",
        "l"
      ],
      [
        "g",
        "row"
      ],
      [
        "ations",
        "hip"
      ],
      [
        "F",
        "e"
      ],
      [
        "con",
        "fid"
      ],
      [
        "imp",
        "le"
      ],
      [
        "ri",
        "but"
      ],
      [
        "rel",
        "ationship"
      ],
      [
        "F",
        "inding"
      ],
      [
        "N",
        "ot"
      ],
      [
        "sh",
        "ould"
      ],
      [
        "Fe",
        "ature"
      ],
      [
        "le",
        "a"
      ],
      [
        "exper",
        "ience"
      ],
      [
        "cur",
        "ity"
      ],
      [
        "import",
        "ant"
      ],
      [
        "ca",
        "use"
      ],
      [
        "uto",
        "mat"
      ],
      [
        "E",
        "ach"
      ],
      [
        "ard",
        "s"
      ],
      [
        "e",
        "ck"
      ],
      [
        "no",
        "vel"
      ],
      [
        "understand",
        "ing"
      ],
      [
        "rig",
        "or"
      ],
      [
        "oun",
        "d"
      ],
      [
        "whe",
        "re"
      ],
      [
        "k",
        "ill"
      ],
      [
        "sh",
        "ip"
      ],
      [
        "budget",
        "s"
      ],
      [
        "comb",
        "ine"
      ],
      [
        "ma",
        "k"
      ],
      [
        "wr",
        "ite"
      ],
      [
        "impact",
        "ful"
      ],
      [
        "our",
        "ce"
      ],
      [
        "b",
        "er"
      ],
      [
        "in",
        "s"
      ],
      [
        "for",
        "ce"
      ],
      [
        "utomat",
        "ed"
      ],
      [
        "s",
        "kill"
      ],
      [
        "ic",
        "es"
      ],
      [
        "ig",
        "ning"
      ],
      [
        "Feature",
        "s"
      ],
      [
        "s",
        "ive"
      ],
      [
        "w",
        "as"
      ],
      [
        "x",
        "t"
      ],
      [
        "in",
        "vest"
      ],
      [
        "te",
        "xt"
      ],
      [
        "a",
        "m"
      ],
      [
        "to",
        "ol"
      ],
      [
        "ver",
        "age"
      ],
      [
        "ur",
        "ing"
      ],
      [
        "comm",
        "un"
      ],
      [
        "cu",
        "m"
      ],
      [
        "d",
        "ata"
      ],
      [
        "l",
        "ow"
      ],
      [
        "s",
        "te"
      ],
      [
        "in",
        "ter"
      ],
      [
        "de",
        "vel"
      ],
      [
        "se",
        "e"
      ],
      [
        "optimiz",
        "ation"
      ],
      [
        "con",
        "vent"
      ],
      [
        "me",
        "ans"
      ],
      [
        "D",
        "es"
      ],
      [
        "o",
        "per"
      ],
      [
        "it",
        "ion"
      ],
      [
        "ed",
        "ge"
      ],
      [
        "independ",
        "ently"
      ],
      [
        "ber",
        "ate"
      ],
      [
        "pl",
        "oy"
      ],
      [
        "comm",
        "on"
      ],
      [
        "l",
        "ess"
      ],
      [
        "s",
        "at"
      ],
      [
        "er",
        "ve"
      ],
      [
        "de",
        "ep"
      ],
      [
        "ex",
        "ce"
      ],
      [
        "ot",
        "t"
      ],
      [
        "Re",
        "factoring"
      ],
      [
        "rev",
        "ers"
      ],
      [
        "pt",
        "ions"
      ],
      [
        "sc",
        "ale"
      ],
      [
        "ang",
        "u"
      ],
      [
        "some",
        "thing"
      ],
      [
        "force",
        "ment"
      ],
      [
        "sat",
        "is"
      ],
      [
        "g",
        "en"
      ],
      [
        "t",
        "r"
      ],
      [
        "ent",
        "ial"
      ],
      [
        "me",
        "m"
      ],
      [
        "re",
        "e"
      ],
      [
        "th",
        "er"
      ],
      [
        "de",
        "f"
      ],
      [
        "process",
        "es"
      ],
      [
        "W",
        "rit"
      ],
      [
        "g",
        "n"
      ],
      [
        "l",
        "angu"
      ],
      [
        "v",
        "oc"
      ],
      [
        "le",
        "d"
      ],
      [
        "ab",
        "ly"
      ],
      [
        "ab",
        "ul"
      ],
      [
        "op",
        "le"
      ],
      [
        "Des",
        "igning"
      ],
      [
        "in",
        "es"
      ],
      [
        "ke",
        "ep"
      ],
      [
        "Test",
        "s"
      ],
      [
        "Writ",
        "ing"
      ],
      [
        "voc",
        "abul"
      ],
      [
        "vocabul",
        "ary"
      ],
      [
        "i",
        "d"
      ],
      [
        "k",
        "s"
      ],
      [
        "p",
        "art"
      ],
      [
        "pe",
        "ople"
      ],
      [
        "reli",
        "ably"
      ],
      [
        "ribut",
        "ion"
      ],
      [
        "L",
        "arge"
      ],
      [
        "t",
        "ra"
      ],
      [
        "en",
        "able"
      ],
      [
        "con",
        "text"
      ],
      [
        "oc",
        "us"
      ],
      [
        "improve",
        "ment"
      ],
      [
        "deli",
        "berate"
      ],
      [
        "c",
        "ing"
      ],
      [
        "e",
        "m"
      ],
      [
        "ro",
        "le"
      ],
      [
        "do",
        "es"
      ],
      [
        "produ",
        "ces"
      ],
      [
        "a",
        "in"
      ],
      [
        "f",
        "ocus"
      ],
      [
        "p",
        "res"
      ],
      [
        "s",
        "er"
      ],
      [
        "s",
        "ess"
      ],
      [
        "s",
        "ist"
      ],
      [
        "s",
        "imple"
      ],
      [
        "de",
        "ploy"
      ],
      [
        "as",
        "ing"
      ],
      [
        "deli",
        "very"
      ],
      [
        "complex",
        "ity"
      ],
      [
        "devel",
        "op"
      ],
      [
        "E",
        "very"
      ],
      [
        "a",
        "ding"
      ],
      [
        "r",
        "is"
      ],
      [
        "pro",
        "gra"
      ],
      [
        "ation",
        "al"
      ],
      [
        "ed",
        "s"
      ],
      [
        "gen",
        "er"
      ],
      [
        "c",
        "if"
      ],
      [
        "tea",
        "ch"
      ],
      [
        "fi",
        "x"
      ],
      [
        "Engine",
        "ers"
      ],
      [
        "build",
        "s"
      ],
      [
        "e",
        "ct"
      ],
      [
        "l",
        "er"
      ],
      [
        "you",
        "r"
      ],
      [
        "spe",
        "cif"
      ],
      [
        "M",
        "eas"
      ],
      [
        "on",
        "s"
      ],
      [
        "us",
        "ually"
      ],
      [
        "ad",
        "s"
      ],
      [
        "reat",
        "ing"
      ],
      [
        "correct",
        "ness"
      ],
      [
        "sess",
        "ions"
      ],
      [
        "C",
        "o"
      ],
      [
        "pro",
        "vi"
      ],
      [
        "oth",
        "er"
      ],
      [
        "cas",
        "es"
      ],
      [
        "langu",
        "age"
      ],
      [
        "j",
        "ect"
      ],
      [
        "wor",
        "th"
      ],
      [
        "ak",
        "es"
      ],
      [
        "pat",
        "tern"
      ],
      [
        "Meas",
        "uring"
      ],
      [
        "T",
        "reating"
      ],
      [
        "b",
        "ack"
      ],
      [
        "f",
        "ra"
      ],
      [
        "ion",
        "ing"
      ],
      [
        "ur",
        "able"
      ],
      [
        "meas",
        "urable"
      ],
      [
        "ce",
        "ful"
      ],
      [
        "ic",
        "k"
      ],
      [
        "ide",
        "as"
      ],
      [
        "satis",
        "fact"
      ],
      [
        "f",
        "ic"
      ],
      [
        "f",
        "ess"
      ],
      [
        "h",
        "u"
      ],
      [
        "ar",
        "ies"
      ],
      [
        "pro",
        "fess"
      ],
      [
        "he",
        "l"
      ],
      [
        "ma",
        "de"
      ],
      [
        "cl",
        "ass"
      ],
      [
        "m",
        "ist"
      ],
      [
        "s",
        "s"
      ],
      [
        "or",
        "y"
      ],
      [
        "confid",
        "ently"
      ],
      [
        "profess",
        "ional"
      ],
      [
        "p",
        "ons"
      ],
      [
        "an",
        "y"
      ],
      [
        "out",
        "put"
      ],
      [
        "un",
        "it"
      ],
      [
        "Test",
        "ing"
      ],
      [
        "cohe",
        "rent"
      ],
      [
        "ris",
        "k"
      ],
      [
        "a",
        "ms"
      ],
      [
        "l",
        "en"
      ],
      [
        "m",
        "y"
      ],
      [
        "n",
        "ers"
      ],
      [
        "su",
        "m"
      ],
      [
        "Te",
        "ams"
      ],
      [
        "leg",
        "ant"
      ],
      [
        "mist",
        "akes"
      ],
      [
        "b",
        "ers"
      ],
      [
        "g",
        "o"
      ],
      [
        "ic",
        "s"
      ],
      [
        "clear",
        "ly"
      ],
      [
        "thing",
        "s"
      ],
      [
        "ott",
        "len"
      ],
      [
        "ottlen",
        "eck"
      ],
      [
        "b",
        "ottleneck"
      ],
      [
        "e",
        "ach"
      ],
      [
        "ad",
        "d"
      ],
      [
        "ag",
        "ree"
      ],
      [
        "man",
        "ag"
      ],
      [
        "atch",
        "ing"
      ],
      [
        "tool",
        "s"
      ],
      [
        "m",
        "is"
      ],
      [
        "ro",
        "ot"
      ],
      [
        "qu",
        "ick"
      ],
      [
        "res",
        "pons"
      ],
      [
        "fail",
        "s"
      ],
      [
        "A",
        "d"
      ],
      [
        "ig",
        "ation"
      ],
      [
        "verif",
        "ication"
      ],
      [
        "meas",
        "ure"
      ],
      [
        "H",
        "ard"
      ],
      [
        "b",
        "ound"
      ],
      [
        "at",
        "t"
      ],
      [
        "ro",
        "ss"
      ],
      [
        "se",
        "l"
      ],
      [
        "In",
        "tegr"
      ],
      [
        "invest",
        "igation"
      ],
      [
        "mem",
        "bers"
      ],
      [
        "satisfact",
        "ion"
      ],
      [
        "class",
        "es"
      ],
      [
        "quick",
        "ly"
      ],
      [
        "c",
        "ou"
      ],
      [
        "re",
        "t"
      ],
      [
        "pro",
        "ud"
      ],
      [
        "ut",
        "ting"
      ],
      [
        "oc",
        "cas"
      ],
      [
        "intent",
        "ional"
      ],
      [
        "progra",
        "m"
      ],
      [
        "specif",
        "ication"
      ],
      [
        "sel",
        "f"
      ],
      [
        "Integr",
        "ation"
      ],
      [
        "T",
        "h"
      ],
      [
        "T",
        "rust"
      ],
      [
        "al",
        "ity"
      ],
      [
        "ion",
        "ally"
      ],
      [
        "de",
        "bugging"
      ],
      [
        "ment",
        "ation"
      ],
      [
        "ap",
        "pro"
      ],
      [
        "cor",
        "ners"
      ],
      [
        "acce",
        "ler"
      ],
      [
        "degra",
        "de"
      ],
      [
        "bound",
        "aries"
      ],
      [
        "occas",
        "ionally"
      ],
      [
        "A",
        "utomated"
      ],
      [
        "C",
        "utting"
      ],
      [
        "S",
        "pe"
      ],
      [
        "c",
        "ould"
      ],
      [
        "p",
        "o"
      ],
      [
        "in",
        "ing"
      ],
      [
        "ge",
        "ther"
      ],
      [
        "ad",
        "th"
      ],
      [
        "ac",
        "ross"
      ],
      [
        "dis",
        "agree"
      ],
      [
        "dr",
        "if"
      ],
      [
        "lea",
        "ve"
      ],
      [
        "acceler",
        "ates"
      ],
      [
        "r",
        "ight"
      ],
      [
        "ou",
        "gh"
      ],
      [
        "stand",
        "ards"
      ],
      [
        "ach",
        "ing"
      ],
      [
        "bre",
        "adth"
      ],
      [
        "g",
        "or"
      ],
      [
        "en",
        "se"
      ],
      [
        "who",
        "le"
      ],
      [
        "fix",
        "ed"
      ],
      [
        "manag",
        "ers"
      ],
      [
        "S",
        "e"
      ],
      [
        "f",
        "il"
      ],
      [
        "m",
        "ic"
      ],
      [
        "ch",
        "ing"
      ],
      [
        "as",
        "sum"
      ],
      [
        "ap",
        "ting"
      ],
      [
        "funct",
        "ioning"
      ],
      [
        "exce",
        "eds"
      ],
      [
        "worth",
        "y"
      ],
      [
        "disagree",
        "ments"
      ],
      [
        "gor",
        "ith"
      ],
      [
        "U",
        "n"
      ],
      [
        "v",
        "ers"
      ],
      [
        "ro",
        "les"
      ],
      [
        "ci",
        "alists"
      ],
      [
        "wr",
        "it"
      ],
      [
        "sing",
        "le"
      ],
      [
        "gener",
        "alists"
      ],
      [
        "Ad",
        "apting"
      ],
      [
        "Spe",
        "cialists"
      ],
      [
        "o",
        "d"
      ],
      [
        "w",
        "ard"
      ],
      [
        "er",
        "y"
      ],
      [
        "to",
        "gether"
      ],
      [
        "ical",
        "ly"
      ],
      [
        "b",
        "r"
      ],
      [
        "al",
        "gorith"
      ],
      [
        "optimiz",
        "ing"
      ],
      [
        "b",
        "ad"
      ],
      [
        "h",
        "en"
      ],
      [
        "y",
        "ing"
      ],
      [
        "en",
        "forcement"
      ],
      [
        "it",
        "ive"
      ],
      [
        "ut",
        "ure"
      ],
      [
        "improve",
        "ments"
      ],
      [
        "revers",
        "ible"
      ],
      [
        "appro",
        "ach"
      ],
      [
        "i",
        "qu"
      ],
      [
        "be",
        "come"
      ],
      [
        "ul",
        "ar"
      ],
      [
        "ren",
        "ce"
      ],
      [
        "pe",
        "t"
      ],
      [
        "chang",
        "ing"
      ],
      [
        "sol",
        "ve"
      ],
      [
        "fast",
        "er"
      ],
      [
        "Pro",
        "fil"
      ],
      [
        "develop",
        "ment"
      ],
      [
        "Profil",
        "ing"
      ],
      [
        "b",
        "ig"
      ],
      [
        "r",
        "or"
      ],
      [
        "con",
        "sist"
      ],
      [
        "oo",
        "ks"
      ],
      [
        "respons",
        "ibility"
      ],
      [
        "i",
        "er"
      ],
      [
        "w",
        "it"
      ],
      [
        "at",
        "ed"
      ],
      [
        "mak",
        "es"
      ],
      [
        "convent",
        "ion"
      ],
      [
        "er",
        "o"
      ],
      [
        "com",
        "pet"
      ],
      [
        "not",
        "ice"
      ],
      [
        "ul",
        "ation"
      ],
      [
        "ru",
        "ptions"
      ],
      [
        "lo",
        "g"
      ],
      [
        "hel",
        "ps"
      ],
      [
        "Se",
        "curity"
      ],
      [
        "s",
        "wit"
      ],
      [
        "t",
        "en"
      ],
      [
        "co",
        "verage"
      ],
      [
        "us",
        "age"
      ],
      [
        "ac",
        "cum"
      ],
      [
        "Re",
        "ading"
      ],
      [
        "ear",
        "ly"
      ],
      [
        "swit",
        "ching"
      ],
      [
        "c",
        "le"
      ],
      [
        "g",
        "est"
      ],
      [
        "r",
        "on"
      ],
      [
        "w",
        "ins"
      ],
      [
        "vi",
        "ous"
      ],
      [
        "ste",
        "ps"
      ],
      [
        "f",
        "uture"
      ],
      [
        "m",
        "or"
      ],
      [
        "qu",
        "ality"
      ],
      [
        "res",
        "ource"
      ],
      [
        "lo",
        "ve"
      ],
      [
        "codebas",
        "es"
      ],
      [
        "spe",
        "ct"
      ],
      [
        "ob",
        "vious"
      ],
      [
        "skill",
        "s"
      ],
      [
        "was",
        "ted"
      ],
      [
        "ret",
        "ro"
      ],
      [
        "big",
        "gest"
      ],
      [
        "g",
        "ers"
      ],
      [
        "l",
        "ine"
      ],
      [
        "u",
        "al"
      ],
      [
        "on",
        "es"
      ],
      [
        "eas",
        "ier"
      ],
      [
        "pres",
        "erve"
      ],
      [
        "Co",
        "m"
      ],
      [
        "algorith",
        "mic"
      ],
      [
        "F",
        "ear"
      ],
      [
        "f",
        "requ"
      ],
      [
        "p",
        "ort"
      ],
      [
        "re",
        "hen"
      ],
      [
        "te",
        "ll"
      ],
      [
        "of",
        "f"
      ],
      [
        "co",
        "gn"
      ],
      [
        "ce",
        "ive"
      ],
      [
        "do",
        "cu"
      ],
      [
        "comp",
        "rehen"
      ],
      [
        "Per",
        "ceive"
      ],
      [
        "ca",
        "us"
      ],
      [
        "pat",
        "ience"
      ],
      [
        "Ex",
        "ce"
      ],
      [
        "measure",
        "d"
      ],
      [
        "Un",
        "derstand"
      ],
      [
        "accum",
        "ulation"
      ],
      [
        "retro",
        "spect"
      ],
      [
        "comprehen",
        "sive"
      ],
      [
        "Perceive",
        "d"
      ],
      [
        "S",
        "mall"
      ],
      [
        "a",
        "st"
      ],
      [
        "m",
        "ind"
      ],
      [
        "p",
        "re"
      ],
      [
        "ic",
        "ate"
      ],
      [
        "enable",
        "d"
      ],
      [
        "preserve",
        "d"
      ],
      [
        "Fear",
        "less"
      ],
      [
        "Understand",
        "ing"
      ],
      [
        "b",
        "ooks"
      ],
      [
        "e",
        "legant"
      ],
      [
        "un",
        "der"
      ],
      [
        "do",
        "w"
      ],
      [
        "ear",
        "n"
      ],
      [
        "hu",
        "man"
      ],
      [
        "go",
        "al"
      ],
      [
        "att",
        "ack"
      ],
      [
        "er",
        "ror"
      ],
      [
        "is",
        "su"
      ],
      [
        "as",
        "e"
      ],
      [
        "buil",
        "t"
      ],
      [
        "pt",
        "able"
      ],
      [
        "fast",
        "est"
      ],
      [
        "acce",
        "ptable"
      ],
      [
        "def",
        "ines"
      ],
      [
        "provi",
        "des"
      ],
      [
        "ero",
        "de"
      ],
      [
        "e",
        "ding"
      ],
      [
        "l",
        "oy"
      ],
      [
        "p",
        "ot"
      ],
      [
        "t",
        "rig"
      ],
      [
        "in",
        "ci"
      ],
      [
        "al",
        "ty"
      ],
      [
        "st",
        "ate"
      ],
      [
        "requ",
        "est"
      ],
      [
        "ha",
        "p"
      ],
      [
        "pract",
        "ices"
      ],
      [
        "plic",
        "it"
      ],
      [
        "Exce",
        "eding"
      ],
      [
        "loy",
        "alty"
      ],
      [
        "trig",
        "gers"
      ],
      [
        "c",
        "are"
      ],
      [
        "e",
        "du"
      ],
      [
        "h",
        "ab"
      ],
      [
        "i",
        "le"
      ],
      [
        "r",
        "st"
      ],
      [
        "t",
        "ers"
      ],
      [
        "re",
        "produce"
      ],
      [
        "comp",
        "os"
      ],
      [
        "De",
        "bugging"
      ],
      [
        "model",
        "s"
      ],
      [
        "ser",
        "v"
      ],
      [
        "caus",
        "es"
      ],
      [
        "issu",
        "es"
      ],
      [
        "c",
        "ted"
      ],
      [
        "d",
        "i"
      ],
      [
        "st",
        "ract"
      ],
      [
        "ist",
        "ic"
      ],
      [
        "fi",
        "rst"
      ],
      [
        "catch",
        "es"
      ],
      [
        "tr",
        "ans"
      ],
      [
        "keep",
        "ing"
      ],
      [
        "cle",
        "an"
      ],
      [
        "g",
        "ular"
      ],
      [
        "l",
        "arge"
      ],
      [
        "re",
        "main"
      ],
      [
        "bre",
        "ak"
      ],
      [
        "ri",
        "bu"
      ],
      [
        "am",
        "ing"
      ],
      [
        "ab",
        "stract"
      ],
      [
        "st",
        "y"
      ],
      [
        "mat",
        "ically"
      ],
      [
        "incre",
        "asing"
      ],
      [
        "commun",
        "ication"
      ],
      [
        "reproduce",
        "d"
      ],
      [
        "increasing",
        "ly"
      ],
      [
        "A",
        "I"
      ],
      [
        "L",
        "ear"
      ],
      [
        "e",
        "vent"
      ],
      [
        "p",
        "os"
      ],
      [
        "re",
        "st"
      ],
      [
        "re",
        "cogn"
      ],
      [
        "en",
        "ted"
      ],
      [
        "ha",
        "ving"
      ],
      [
        "pl",
        "an"
      ],
      [
        "act",
        "ive"
      ],
      [
        "mat",
        "ters"
      ],
      [
        "ne",
        "t"
      ],
      [
        "reveal",
        "s"
      ],
      [
        "cohe",
        "rence"
      ],
      [
        "fic",
        "i"
      ],
      [
        "tell",
        "s"
      ],
      [
        "Lear",
        "ning"
      ],
      [
        "recogn",
        "ition"
      ],
      [
        "D",
        "oc"
      ],
      [
        "p",
        "ow"
      ],
      [
        "s",
        "ource"
      ],
      [
        "v",
        "ant"
      ],
      [
        "th",
        "or"
      ],
      [
        "en",
        "d"
      ],
      [
        "at",
        "ing"
      ],
      [
        "at",
        "ab"
      ],
      [
        "for",
        "cing"
      ],
      [
        "Re",
        "gular"
      ],
      [
        "product",
        "ion"
      ],
      [
        "pr",
        "im"
      ],
      [
        "docu",
        "mentation"
      ],
      [
        "pot",
        "ential"
      ],
      [
        "sty",
        "le"
      ],
      [
        "c",
        "lo"
      ],
      [
        "f",
        "ind"
      ],
      [
        "h",
        "op"
      ],
      [
        "l",
        "oo"
      ],
      [
        "p",
        "ri"
      ],
      [
        "t",
        "a"
      ],
      [
        "re",
        "plic"
      ],
      [
        "en",
        "g"
      ],
      [
        "or",
        "s"
      ],
      [
        "ro",
        "l"
      ],
      [
        "ct",
        "ion"
      ],
      [
        "mo",
        "t"
      ],
      [
        "res",
        "il"
      ],
      [
        "ex",
        "plicit"
      ],
      [
        "get",
        "s"
      ],
      [
        "En",
        "forcing"
      ],
      [
        "gra",
        "ceful"
      ],
      [
        "fun",
        "da"
      ],
      [
        "uto",
        "m"
      ],
      [
        "program",
        "matically"
      ],
      [
        "hop",
        "ing"
      ],
      [
        "A",
        "t"
      ],
      [
        "i",
        "os"
      ],
      [
        "p",
        "ers"
      ],
      [
        "t",
        "s"
      ],
      [
        "t",
        "ribution"
      ],
      [
        "st",
        "ud"
      ],
      [
        "ul",
        "l"
      ],
      [
        "Ex",
        "per"
      ],
      [
        "edu",
        "c"
      ],
      [
        "hab",
        "it"
      ],
      [
        "Doc",
        "u"
      ],
      [
        "prim",
        "ary"
      ],
      [
        "A",
        "P"
      ],
      [
        "M",
        "ent"
      ],
      [
        "M",
        "aking"
      ],
      [
        "p",
        "le"
      ],
      [
        "r",
        "y"
      ],
      [
        "mo",
        "des"
      ],
      [
        "qu",
        "ery"
      ],
      [
        "comp",
        "on"
      ],
      [
        "age",
        "d"
      ],
      [
        "ne",
        "ver"
      ],
      [
        "learn",
        "ed"
      ],
      [
        "mak",
        "ing"
      ],
      [
        "request",
        "s"
      ],
      [
        "pow",
        "er"
      ],
      [
        "mot",
        "iv"
      ],
      [
        "W",
        "atching"
      ],
      [
        "d",
        "ang"
      ],
      [
        "l",
        "ong"
      ],
      [
        "p",
        "ull"
      ],
      [
        "s",
        "il"
      ],
      [
        "re",
        "mo"
      ],
      [
        "er",
        "ous"
      ],
      [
        "an",
        "ch"
      ],
      [
        "or",
        "ship"
      ],
      [
        "ess",
        "ential"
      ],
      [
        "reli",
        "ability"
      ],
      [
        "Te",
        "chnical"
      ],
      [
        "path",
        "y"
      ],
      [
        "ste",
        "p"
      ],
      [
        "focus",
        "ed"
      ],
      [
        "br",
        "anch"
      ],
      [
        "frequ",
        "ently"
      ],
      [
        "graceful",
        "ly"
      ],
      [
        "funda",
        "mental"
      ],
      [
        "Exper",
        "ience"
      ],
      [
        "educ",
        "ational"
      ],
      [
        "dang",
        "erous"
      ],
      [
        "c",
        "ap"
      ],
      [
        "s",
        "ers"
      ],
      [
        "re",
        "ad"
      ],
      [
        "ment",
        "ing"
      ],
      [
        "ma",
        "ch"
      ],
      [
        "ad",
        "vant"
      ],
      [
        "Pro",
        "du"
      ],
      [
        "experience",
        "d"
      ],
      [
        "em",
        "pathy"
      ],
      [
        "atab",
        "ase"
      ],
      [
        "advant",
        "age"
      ],
      [
        "G",
        "ra"
      ],
      [
        "c",
        "ad"
      ],
      [
        "h",
        "and"
      ],
      [
        "le",
        "verage"
      ],
      [
        "ci",
        "es"
      ],
      [
        "Re",
        "le"
      ],
      [
        "cont",
        "rol"
      ],
      [
        "oth",
        "ers"
      ],
      [
        "dr",
        "iv"
      ],
      [
        "fra",
        "structure"
      ],
      [
        "ough",
        "ly"
      ],
      [
        "compet",
        "itive"
      ],
      [
        "goal",
        "s"
      ],
      [
        "thor",
        "oughly"
      ],
      [
        "replic",
        "ate"
      ],
      [
        "stud",
        "y"
      ],
      [
        "Ment",
        "orship"
      ],
      [
        "cad",
        "ence"
      ],
      [
        "S",
        "h"
      ],
      [
        "d",
        "ation"
      ],
      [
        "en",
        "cies"
      ],
      [
        "te",
        "ct"
      ],
      [
        "do",
        "cum"
      ],
      [
        "ef",
        "fici"
      ],
      [
        "val",
        "id"
      ],
      [
        "pa",
        "ys"
      ],
      [
        "review",
        "ed"
      ],
      [
        "independ",
        "ent"
      ],
      [
        "degra",
        "dation"
      ],
      [
        "deploy",
        "able"
      ],
      [
        "Rele",
        "asing"
      ],
      [
        "docum",
        "ented"
      ],
      [
        "p",
        "th"
      ],
      [
        "s",
        "low"
      ],
      [
        "in",
        "frastructure"
      ],
      [
        "re",
        "ads"
      ],
      [
        "de",
        "pth"
      ],
      [
        "vi",
        "ron"
      ],
      [
        "se",
        "curity"
      ],
      [
        "eas",
        "y"
      ],
      [
        "mor",
        "ale"
      ],
      [
        "abstract",
        "ion"
      ],
      [
        "clo",
        "se"
      ],
      [
        "C",
        "aching"
      ],
      [
        "D",
        "atabase"
      ],
      [
        "U",
        "sers"
      ],
      [
        "a",
        "ud"
      ],
      [
        "a",
        "utom"
      ],
      [
        "m",
        "ult"
      ],
      [
        "en",
        "viron"
      ],
      [
        "te",
        "chn"
      ],
      [
        "st",
        "r"
      ],
      [
        "op",
        "t"
      ],
      [
        "cont",
        "ribution"
      ],
      [
        "hard",
        "ware"
      ],
      [
        "sc",
        "al"
      ],
      [
        "convent",
        "ions"
      ],
      [
        "drif",
        "t"
      ],
      [
        "iqu",
        "es"
      ],
      [
        "compon",
        "ents"
      ],
      [
        "motiv",
        "ates"
      ],
      [
        "remo",
        "ves"
      ],
      [
        "Produ",
        "ct"
      ],
      [
        "techn",
        "iques"
      ],
      [
        "A",
        "li"
      ],
      [
        "N",
        "aming"
      ],
      [
        "an",
        "al"
      ],
      [
        "or",
        "m"
      ],
      [
        "depend",
        "encies"
      ],
      [
        "high",
        "est"
      ],
      [
        "inter",
        "fa"
      ],
      [
        "led",
        "ge"
      ],
      [
        "eng",
        "aged"
      ],
      [
        "explicit",
        "ly"
      ],
      [
        "AP",
        "I"
      ],
      [
        "close",
        "ly"
      ],
      [
        "a",
        "f"
      ],
      [
        "c",
        "er"
      ],
      [
        "p",
        "are"
      ],
      [
        "s",
        "ur"
      ],
      [
        "re",
        "in"
      ],
      [
        "ar",
        "ting"
      ],
      [
        "ite",
        "d"
      ],
      [
        "iz",
        "ation"
      ],
      [
        "architecture",
        "s"
      ],
      [
        "depend",
        "ency"
      ],
      [
        "real",
        "istic"
      ],
      [
        "grow",
        "th"
      ],
      [
        "hap",
        "pen"
      ],
      [
        "At",
        "tribution"
      ],
      [
        "sil",
        "ently"
      ],
      [
        "driv",
        "en"
      ],
      [
        "valid",
        "ation"
      ],
      [
        "pare",
        "n"
      ],
      [
        "D",
        "ef"
      ],
      [
        "t",
        "ar"
      ],
      [
        "in",
        "visible"
      ],
      [
        "or",
        "ation"
      ],
      [
        "un",
        "de"
      ],
      [
        "work",
        "s"
      ],
      [
        "pl",
        "ing"
      ],
      [
        "des",
        "erve"
      ],
      [
        "comp",
        "ut"
      ],
      [
        "product",
        "ivity"
      ],
      [
        "ag",
        "ain"
      ],
      [
        "mainta",
        "ining"
      ],
      [
        "safe",
        "ty"
      ],
      [
        "trust",
        "worthy"
      ],
      [
        "pr",
        "inci"
      ],
      [
        "gn",
        "ment"
      ],
      [
        "pattern",
        "s"
      ],
      [
        "degrade",
        "d"
      ],
      [
        "writ",
        "ing"
      ],
      [
        "event",
        "ually"
      ],
      [
        "Gra",
        "ceful"
      ],
      [
        "autom",
        "ate"
      ],
      [
        "Ali",
        "gnment"
      ],
      [
        "princi",
        "ple"
      ],
      [
        "a",
        "utomated"
      ],
      [
        "g",
        "u"
      ],
      [
        "g",
        "an"
      ],
      [
        "i",
        "ous"
      ],
      [
        "i",
        "ally"
      ],
      [
        "i",
        "od"
      ],
      [
        "s",
        "ible"
      ],
      [
        "en",
        "ar"
      ],
      [
        "ys",
        "is"
      ],
      [
        "con",
        "f"
      ],
      [
        "form",
        "at"
      ],
      [
        "man",
        "ual"
      ],
      [
        "depend",
        "s"
      ],
      [
        "In",
        "vest"
      ],
      [
        "sc",
        "enar"
      ],
      [
        "St",
        "and"
      ],
      [
        "commun",
        "icate"
      ],
      [
        "part",
        "ially"
      ],
      [
        "assum",
        "ptions"
      ],
      [
        "dow",
        "n"
      ],
      [
        "trans",
        "paren"
      ],
      [
        "clean",
        "er"
      ],
      [
        "tect",
        "ing"
      ],
      [
        "anal",
        "ysis"
      ],
      [
        "tar",
        "gets"
      ],
      [
        "scenar",
        "ios"
      ],
      [
        "D",
        "ata"
      ],
      [
        "p",
        "ass"
      ],
      [
        "the",
        "m"
      ],
      [
        "ent",
        "ry"
      ],
      [
        "ed",
        "back"
      ],
      [
        "tim",
        "es"
      ],
      [
        "sa",
        "y"
      ],
      [
        "know",
        "ledge"
      ],
      [
        "St",
        "arting"
      ],
      [
        "oper",
        "at"
      ],
      [
        "fra",
        "g"
      ],
      [
        "po",
        "ints"
      ],
      [
        "mach",
        "ine"
      ],
      [
        "mult",
        "ip"
      ],
      [
        "Stand",
        "ards"
      ],
      [
        "f",
        "low"
      ],
      [
        "k",
        "ing"
      ],
      [
        "l",
        "at"
      ],
      [
        "u",
        "p"
      ],
      [
        "in",
        "ward"
      ],
      [
        "pro",
        "ject"
      ],
      [
        "fe",
        "edback"
      ],
      [
        "ex",
        "pen"
      ],
      [
        "decis",
        "ion"
      ],
      [
        "vent",
        "ions"
      ],
      [
        "proper",
        "ty"
      ],
      [
        "tern",
        "al"
      ],
      [
        "Con",
        "ventions"
      ],
      [
        "lea",
        "st"
      ],
      [
        "revers",
        "ibility"
      ],
      [
        "cou",
        "pling"
      ],
      [
        "interfa",
        "ces"
      ],
      [
        "rein",
        "forcement"
      ],
      [
        "Invest",
        "ing"
      ],
      [
        "transparen",
        "cy"
      ],
      [
        "frag",
        "ile"
      ],
      [
        "expen",
        "sive"
      ],
      [
        "C",
        "h"
      ],
      [
        "I",
        "r"
      ],
      [
        "I",
        "t"
      ],
      [
        "o",
        "se"
      ],
      [
        "in",
        "form"
      ],
      [
        "en",
        "s"
      ],
      [
        "or",
        "gan"
      ],
      [
        "ch",
        "no"
      ],
      [
        "ch",
        "eck"
      ],
      [
        "he",
        "ads"
      ],
      [
        "thin",
        "ess"
      ],
      [
        "wor",
        "thiness"
      ],
      [
        "ef",
        "ul"
      ],
      [
        "Re",
        "vers"
      ],
      [
        "sol",
        "ving"
      ],
      [
        "man",
        "y"
      ],
      [
        "Per",
        "iod"
      ],
      [
        "spe",
        "ed"
      ],
      [
        "lim",
        "ited"
      ],
      [
        "Trust",
        "worthy"
      ],
      [
        "Trust",
        "worthiness"
      ],
      [
        "drif",
        "ted"
      ],
      [
        "Docu",
        "menting"
      ],
      [
        "aud",
        "its"
      ],
      [
        "environ",
        "ments"
      ],
      [
        "again",
        "st"
      ],
      [
        "Ir",
        "reversible"
      ],
      [
        "chno",
        "log"
      ],
      [
        "Revers",
        "ible"
      ],
      [
        "Period",
        "ic"
      ],
      [
        "d",
        "ist"
      ],
      [
        "fa",
        "ul"
      ],
      [
        "us",
        "eful"
      ],
      [
        "int",
        "ing"
      ],
      [
        "pe",
        "ct"
      ],
      [
        "iv",
        "es"
      ],
      [
        "evol",
        "ves"
      ],
      [
        "iz",
        "es"
      ],
      [
        "In",
        "ter"
      ],
      [
        "corre",
        "cted"
      ],
      [
        "constra",
        "int"
      ],
      [
        "De",
        "faul"
      ],
      [
        "inter",
        "ruptions"
      ],
      [
        "assum",
        "es"
      ],
      [
        "consist",
        "ency"
      ],
      [
        "care",
        "ful"
      ],
      [
        "opt",
        "ions"
      ],
      [
        "format",
        "ting"
      ],
      [
        "check",
        "ing"
      ],
      [
        "Defaul",
        "ting"
      ],
      [
        "B",
        "atching"
      ],
      [
        "L",
        "inting"
      ],
      [
        "S",
        "o"
      ],
      [
        "i",
        "ent"
      ],
      [
        "y",
        "n"
      ],
      [
        "in",
        "al"
      ],
      [
        "in",
        "ject"
      ],
      [
        "pro",
        "mis"
      ],
      [
        "pro",
        "tecting"
      ],
      [
        "architect",
        "s"
      ],
      [
        "sh",
        "are"
      ],
      [
        "ag",
        "es"
      ],
      [
        "failure",
        "s"
      ],
      [
        "by",
        "pass"
      ],
      [
        "ty",
        "p"
      ],
      [
        "da",
        "y"
      ],
      [
        "da",
        "ma"
      ],
      [
        "def",
        "ense"
      ],
      [
        "cou",
        "p"
      ],
      [
        "rest",
        "im"
      ],
      [
        "Def",
        "ense"
      ],
      [
        "operat",
        "ors"
      ],
      [
        "So",
        "me"
      ],
      [
        "inject",
        "ion"
      ],
      [
        "C",
        "l"
      ],
      [
        "D",
        "o"
      ],
      [
        "S",
        "yste"
      ],
      [
        "g",
        "reat"
      ],
      [
        "m",
        "on"
      ],
      [
        "u",
        "m"
      ],
      [
        "y",
        "ear"
      ],
      [
        "le",
        "ge"
      ],
      [
        "it",
        "ies"
      ],
      [
        "vi",
        "lege"
      ],
      [
        "redu",
        "cing"
      ],
      [
        "ight",
        "ly"
      ],
      [
        "attack",
        "s"
      ],
      [
        "loo",
        "se"
      ],
      [
        "pri",
        "vilege"
      ],
      [
        "Sh",
        "ared"
      ],
      [
        "unde",
        "restim"
      ],
      [
        "Inter",
        "ruptions"
      ],
      [
        "promis",
        "e"
      ],
      [
        "bypass",
        "ed"
      ],
      [
        "dama",
        "ge"
      ],
      [
        "coup",
        "led"
      ],
      [
        "underestim",
        "ated"
      ],
      [
        "T",
        "ightly"
      ],
      [
        "l",
        "a"
      ],
      [
        "s",
        "ign"
      ],
      [
        "u",
        "b"
      ],
      [
        "in",
        "ess"
      ],
      [
        "ce",
        "pt"
      ],
      [
        "com",
        "promise"
      ],
      [
        "dif",
        "fic"
      ],
      [
        "dis",
        "c"
      ],
      [
        "In",
        "put"
      ],
      [
        "ins",
        "ight"
      ],
      [
        "writ",
        "ten"
      ],
      [
        "resil",
        "ient"
      ],
      [
        "chnolog",
        "y"
      ],
      [
        "year",
        "s"
      ],
      [
        "diffic",
        "ult"
      ],
      [
        "B",
        "ut"
      ],
      [
        "W",
        "h"
      ],
      [
        "a",
        "v"
      ],
      [
        "d",
        "ers"
      ],
      [
        "in",
        "vol"
      ],
      [
        "ou",
        "d"
      ],
      [
        "ent",
        "ion"
      ],
      [
        "engine",
        "er"
      ],
      [
        "con",
        "cept"
      ],
      [
        "comp",
        "ose"
      ],
      [
        "ne",
        "ed"
      ],
      [
        "ty",
        "pe"
      ],
      [
        "redu",
        "ce"
      ],
      [
        "Te",
        "aching"
      ],
      [
        "leg",
        "ance"
      ],
      [
        "exce",
        "ll"
      ],
      [
        "compos",
        "ition"
      ],
      [
        "net",
        "work"
      ],
      [
        "Syste",
        "ms"
      ],
      [
        "disc",
        "us"
      ],
      [
        "i",
        "x"
      ],
      [
        "l",
        "ing"
      ],
      [
        "p",
        "ar"
      ],
      [
        "re",
        "d"
      ],
      [
        "com",
        "fort"
      ],
      [
        "ap",
        "p"
      ],
      [
        "require",
        "d"
      ],
      [
        "Con",
        "sist"
      ],
      [
        "Do",
        "main"
      ],
      [
        "comfort",
        "able"
      ],
      [
        "l",
        "ast"
      ],
      [
        "p",
        "i"
      ],
      [
        "re",
        "ading"
      ],
      [
        "th",
        "od"
      ],
      [
        "il",
        "ities"
      ],
      [
        "me",
        "thod"
      ],
      [
        "creat",
        "e"
      ],
      [
        "every",
        "thing"
      ],
      [
        "cur",
        "ious"
      ],
      [
        "lim",
        "it"
      ],
      [
        "ob",
        "serv"
      ],
      [
        "em",
        "p"
      ],
      [
        "hu",
        "m"
      ],
      [
        "program",
        "m"
      ],
      [
        "Th",
        "at"
      ],
      [
        "Com",
        "pos"
      ],
      [
        "ribu",
        "ted"
      ],
      [
        "effici",
        "ently"
      ],
      [
        "orm",
        "al"
      ],
      [
        "m",
        "ess"
      ],
      [
        "m",
        "ust"
      ],
      [
        "o",
        "g"
      ],
      [
        "p",
        "us"
      ],
      [
        "ab",
        "ilities"
      ],
      [
        "wh",
        "y"
      ],
      [
        "res",
        "s"
      ],
      [
        "me",
        "tr"
      ],
      [
        "ex",
        "pl"
      ],
      [
        "comb",
        "ined"
      ],
      [
        "feel",
        "ing"
      ],
      [
        "invest",
        "ment"
      ],
      [
        "elegant",
        "ly"
      ],
      [
        "happen",
        "s"
      ],
      [
        "concept",
        "s"
      ],
      [
        "excell",
        "ent"
      ],
      [
        "discus",
        "sing"
      ],
      [
        "pus",
        "h"
      ],
      [
        "E",
        "legant"
      ],
      [
        "E",
        "legance"
      ],
      [
        "a",
        "gine"
      ],
      [
        "f",
        "inding"
      ],
      [
        "r",
        "un"
      ],
      [
        "in",
        "ation"
      ],
      [
        "re",
        "f"
      ],
      [
        "ch",
        "o"
      ],
      [
        "it",
        "ous"
      ],
      [
        "im",
        "agine"
      ],
      [
        "ter",
        "m"
      ],
      [
        "se",
        "t"
      ],
      [
        "dec",
        "oration"
      ],
      [
        "su",
        "bt"
      ],
      [
        "cont",
        "ribu"
      ],
      [
        "mat",
        "ter"
      ],
      [
        "has",
        "izes"
      ],
      [
        "St",
        "a"
      ],
      [
        "deep",
        "ly"
      ],
      [
        "Co",
        "de"
      ],
      [
        "mis",
        "communication"
      ],
      [
        "iqu",
        "itous"
      ],
      [
        "inform",
        "ation"
      ],
      [
        "ub",
        "iquitous"
      ],
      [
        "emp",
        "hasizes"
      ],
      [
        "programm",
        "ing"
      ],
      [
        "Compos",
        "able"
      ],
      [
        "contribu",
        "te"
      ],
      [
        "or",
        "ig"
      ],
      [
        "de",
        "e"
      ],
      [
        "st",
        "ill"
      ],
      [
        "co",
        "l"
      ],
      [
        "for",
        "ward"
      ],
      [
        "imp",
        "os"
      ],
      [
        "we",
        "b"
      ],
      [
        "design",
        "er"
      ],
      [
        "learn",
        "ers"
      ],
      [
        "compos",
        "able"
      ],
      [
        "scal",
        "ing"
      ],
      [
        "conf",
        "us"
      ],
      [
        "typ",
        "es"
      ],
      [
        "Cl",
        "oud"
      ],
      [
        "Wh",
        "at"
      ],
      [
        "imagine",
        "d"
      ],
      [
        "subt",
        "le"
      ],
      [
        "orig",
        "inal"
      ],
      [
        "E",
        "as"
      ],
      [
        "t",
        "le"
      ],
      [
        "re",
        "ct"
      ],
      [
        "es",
        "e"
      ],
      [
        "li",
        "ability"
      ],
      [
        "com",
        "ers"
      ],
      [
        "ma",
        "c"
      ],
      [
        "du",
        "al"
      ],
      [
        "creat",
        "es"
      ],
      [
        "new",
        "comers"
      ],
      [
        "Con",
        "t"
      ],
      [
        "tra",
        "ining"
      ],
      [
        "deploy",
        "ment"
      ],
      [
        "pers",
        "ist"
      ],
      [
        "hum",
        "ble"
      ],
      [
        "Sta",
        "ying"
      ],
      [
        "G",
        "row"
      ],
      [
        "O",
        "S"
      ],
      [
        "m",
        "ed"
      ],
      [
        "o",
        "m"
      ],
      [
        "p",
        "h"
      ],
      [
        "p",
        "ing"
      ],
      [
        "s",
        "im"
      ],
      [
        "v",
        "en"
      ],
      [
        "re",
        "as"
      ],
      [
        "for",
        "g"
      ],
      [
        "ol",
        "d"
      ],
      [
        "ol",
        "low"
      ],
      [
        "if",
        "ic"
      ],
      [
        "age",
        "ment"
      ],
      [
        "tra",
        "de"
      ],
      [
        "consist",
        "ent"
      ],
      [
        "power",
        "ful"
      ],
      [
        "hand",
        "le"
      ],
      [
        "slow",
        "er"
      ],
      [
        "Consist",
        "ency"
      ],
      [
        "impos",
        "sible"
      ],
      [
        "confus",
        "ion"
      ],
      [
        "Eas",
        "y"
      ],
      [
        "Grow",
        "th"
      ],
      [
        "A",
        "s"
      ],
      [
        "D",
        "if"
      ],
      [
        "it",
        "er"
      ],
      [
        "pro",
        "port"
      ],
      [
        "he",
        "al"
      ],
      [
        "ers",
        "hip"
      ],
      [
        "ra",
        "f"
      ],
      [
        "ist",
        "ics"
      ],
      [
        "fi",
        "le"
      ],
      [
        "confid",
        "ent"
      ],
      [
        "oper",
        "ational"
      ],
      [
        "ott",
        "en"
      ],
      [
        "deliberate",
        "ly"
      ],
      [
        "project",
        "s"
      ],
      [
        "organ",
        "iz"
      ],
      [
        "difficult",
        "y"
      ],
      [
        "limit",
        "ations"
      ],
      [
        "metr",
        "ics"
      ],
      [
        "dee",
        "pen"
      ],
      [
        "forg",
        "otten"
      ],
      [
        "Dif",
        "ferent"
      ],
      [
        "proport",
        "ional"
      ],
      [
        "F",
        "ast"
      ],
      [
        "f",
        "ollow"
      ],
      [
        "u",
        "e"
      ],
      [
        "in",
        "to"
      ],
      [
        "in",
        "dow"
      ],
      [
        "re",
        "g"
      ],
      [
        "er",
        "istics"
      ],
      [
        "an",
        "no"
      ],
      [
        "le",
        "ct"
      ],
      [
        "le",
        "vel"
      ],
      [
        "ch",
        "ar"
      ],
      [
        "ar",
        "ing"
      ],
      [
        "ex",
        "t"
      ],
      [
        "ex",
        "ist"
      ],
      [
        "rent",
        "ices"
      ],
      [
        "ate",
        "g"
      ],
      [
        "ate",
        "ly"
      ],
      [
        "En",
        "d"
      ],
      [
        "iz",
        "e"
      ],
      [
        "act",
        "eristics"
      ],
      [
        "design",
        "ed"
      ],
      [
        "mainta",
        "in"
      ],
      [
        "ind",
        "icate"
      ],
      [
        "rit",
        "tle"
      ],
      [
        "plic",
        "ations"
      ],
      [
        "develop",
        "ers"
      ],
      [
        "your",
        "self"
      ],
      [
        "serv",
        "ices"
      ],
      [
        "str",
        "ateg"
      ],
      [
        "Ch",
        "allen"
      ],
      [
        "Some",
        "times"
      ],
      [
        "invol",
        "ves"
      ],
      [
        "app",
        "rentices"
      ],
      [
        "observ",
        "ability"
      ],
      [
        "persist",
        "ent"
      ],
      [
        "reas",
        "on"
      ],
      [
        "indow",
        "s"
      ],
      [
        "char",
        "acteristics"
      ],
      [
        "apprentices",
        "hip"
      ],
      [
        "F",
        "ormal"
      ],
      [
        "K",
        "now"
      ],
      [
        "L",
        "inu"
      ],
      [
        "W",
        "indows"
      ],
      [
        "a",
        "il"
      ],
      [
        "b",
        "rittle"
      ],
      [
        "f",
        "ound"
      ],
      [
        "i",
        "vi"
      ],
      [
        "m",
        "ix"
      ],
      [
        "r",
        "are"
      ],
      [
        "t",
        "es"
      ],
      [
        "y",
        "ance"
      ],
      [
        "te",
        "chnology"
      ],
      [
        "pro",
        "file"
      ],
      [
        "co",
        "ver"
      ],
      [
        "ter",
        "rit"
      ],
      [
        "iv",
        "ers"
      ],
      [
        "fail",
        "ing"
      ],
      [
        "pr",
        "is"
      ],
      [
        "mem",
        "ory"
      ],
      [
        "teach",
        "es"
      ],
      [
        "provi",
        "ders"
      ],
      [
        "hel",
        "p"
      ],
      [
        "compet",
        "ence"
      ],
      [
        "port",
        "ability"
      ],
      [
        "cap",
        "abilities"
      ],
      [
        "mac",
        "OS"
      ],
      [
        "iter",
        "ation"
      ],
      [
        "anno",
        "yance"
      ],
      [
        "Challen",
        "ging"
      ],
      [
        "Linu",
        "x"
      ],
      [
        "territ",
        "ory"
      ],
      [
        "M",
        "o"
      ],
      [
        "c",
        "rit"
      ],
      [
        "c",
        "raf"
      ],
      [
        "e",
        "t"
      ],
      [
        "f",
        "in"
      ],
      [
        "i",
        "thin"
      ],
      [
        "u",
        "man"
      ],
      [
        "w",
        "ithin"
      ],
      [
        "in",
        "te"
      ],
      [
        "th",
        "ese"
      ],
      [
        "le",
        "ction"
      ],
      [
        "li",
        "es"
      ],
      [
        "lo",
        "ad"
      ],
      [
        "ne",
        "eds"
      ],
      [
        "ind",
        "ivi"
      ],
      [
        "resil",
        "ience"
      ],
      [
        "af",
        "fect"
      ],
      [
        "sign",
        "ific"
      ],
      [
        "pi",
        "pe"
      ],
      [
        "method",
        "s"
      ],
      [
        "tes",
        "ted"
      ],
      [
        "indivi",
        "dual"
      ],
      [
        "signific",
        "ant"
      ],
      [
        "C",
        "or"
      ],
      [
        "H",
        "uman"
      ],
      [
        "c",
        "cess"
      ],
      [
        "f",
        "ying"
      ],
      [
        "g",
        "ment"
      ],
      [
        "l",
        "is"
      ],
      [
        "l",
        "ines"
      ],
      [
        "m",
        "ar"
      ],
      [
        "n",
        "ext"
      ],
      [
        "t",
        "al"
      ],
      [
        "in",
        "ternal"
      ],
      [
        "the",
        "ms"
      ],
      [
        "it",
        "oring"
      ],
      [
        "ar",
        "ch"
      ],
      [
        "ke",
        "y"
      ],
      [
        "ci",
        "al"
      ],
      [
        "understand",
        "able"
      ],
      [
        "ach",
        "i"
      ],
      [
        "hard",
        "est"
      ],
      [
        "el",
        "ves"
      ],
      [
        "inci",
        "d"
      ],
      [
        "read",
        "iness"
      ],
      [
        "af",
        "ter"
      ],
      [
        "sur",
        "pris"
      ],
      [
        "heal",
        "th"
      ],
      [
        "thems",
        "elves"
      ],
      [
        "a",
        "y"
      ],
      [
        "c",
        "al"
      ],
      [
        "d",
        "en"
      ],
      [
        "f",
        "er"
      ],
      [
        "t",
        "ain"
      ],
      [
        "in",
        "correct"
      ],
      [
        "th",
        "ough"
      ],
      [
        "at",
        "ive"
      ],
      [
        "or",
        "d"
      ],
      [
        "al",
        "most"
      ],
      [
        "it",
        "ing"
      ],
      [
        "st",
        "ery"
      ],
      [
        "ent",
        "if"
      ],
      [
        "The",
        "re"
      ],
      [
        "ig",
        "r"
      ],
      [
        "ol",
        "og"
      ],
      [
        "ra",
        "ther"
      ],
      [
        "all",
        "ow"
      ],
      [
        "ac",
        "y"
      ],
      [
        "exper",
        "ts"
      ],
      [
        "fi",
        "led"
      ],
      [
        "vel",
        "oc"
      ],
      [
        "review",
        "s"
      ],
      [
        "ud",
        "gment"
      ],
      [
        "ob",
        "s"
      ],
      [
        "satis",
        "fying"
      ],
      [
        "progra",
        "ms"
      ],
      [
        "Th",
        "is"
      ],
      [
        "po",
        "st"
      ],
      [
        "cer",
        "tain"
      ],
      [
        "multip",
        "le"
      ],
      [
        "lat",
        "ency"
      ],
      [
        "med",
        "i"
      ],
      [
        "organiz",
        "ational"
      ],
      [
        "craf",
        "t"
      ],
      [
        "Cor",
        "rect"
      ],
      [
        "achi",
        "eve"
      ],
      [
        "D",
        "ist"
      ],
      [
        "H",
        "ow"
      ],
      [
        "b",
        "o"
      ],
      [
        "b",
        "al"
      ],
      [
        "c",
        "all"
      ],
      [
        "d",
        "est"
      ],
      [
        "g",
        "es"
      ],
      [
        "h",
        "ing"
      ],
      [
        "j",
        "our"
      ],
      [
        "m",
        "igr"
      ],
      [
        "the",
        "re"
      ],
      [
        "pro",
        "g"
      ],
      [
        "fe",
        "rence"
      ],
      [
        "per",
        "fect"
      ],
      [
        "fa",
        "ce"
      ],
      [
        "pl",
        "ication"
      ],
      [
        "ad",
        "ding"
      ],
      [
        "ist",
        "ory"
      ],
      [
        "man",
        "agement"
      ],
      [
        "sa",
        "ves"
      ],
      [
        "pa",
        "in"
      ],
      [
        "experim",
        "ent"
      ],
      [
        "id",
        "entif"
      ],
      [
        "bottleneck",
        "s"
      ],
      [
        "off",
        "s"
      ],
      [
        "hand",
        "ling"
      ],
      [
        "comput",
        "ing"
      ],
      [
        "multip",
        "lies"
      ],
      [
        "pipe",
        "lines"
      ],
      [
        "Human",
        "s"
      ],
      [
        "though",
        "t"
      ],
      [
        "veloc",
        "ity"
      ],
      [
        "b",
        "en"
      ],
      [
        "e",
        "th"
      ],
      [
        "e",
        "ld"
      ],
      [
        "h",
        "y"
      ],
      [
        "h",
        "ar"
      ],
      [
        "j",
        "udgment"
      ],
      [
        "l",
        "oc"
      ],
      [
        "m",
        "ight"
      ],
      [
        "on",
        "est"
      ],
      [
        "ro",
        "ll"
      ],
      [
        "ch",
        "e"
      ],
      [
        "st",
        "art"
      ],
      [
        "im",
        "medi"
      ],
      [
        "li",
        "fe"
      ],
      [
        "com",
        "ing"
      ],
      [
        "un",
        "d"
      ],
      [
        "res",
        "pect"
      ],
      [
        "comp",
        "ound"
      ],
      [
        "ap",
        "plications"
      ],
      [
        "change",
        "d"
      ],
      [
        "ne",
        "y"
      ],
      [
        "learn",
        "ability"
      ],
      [
        "feel",
        "s"
      ],
      [
        "own",
        "ership"
      ],
      [
        "pres",
        "s"
      ],
      [
        "Th",
        "in"
      ],
      [
        "log",
        "s"
      ],
      [
        "pre",
        "di"
      ],
      [
        "error",
        "s"
      ],
      [
        "pos",
        "sible"
      ],
      [
        "ta",
        "int"
      ],
      [
        "pers",
        "on"
      ],
      [
        "str",
        "ong"
      ],
      [
        "API",
        "s"
      ],
      [
        "cer",
        "taint"
      ],
      [
        "dist",
        "ributed"
      ],
      [
        "careful",
        "ly"
      ],
      [
        "la",
        "me"
      ],
      [
        "follow",
        "ing"
      ],
      [
        "Know",
        "ing"
      ],
      [
        "rare",
        "ly"
      ],
      [
        "dest",
        "ination"
      ],
      [
        "jour",
        "ney"
      ],
      [
        "B",
        "re"
      ],
      [
        "E",
        "st"
      ],
      [
        "a",
        "ce"
      ],
      [
        "c",
        "les"
      ],
      [
        "g",
        "le"
      ],
      [
        "h",
        "onest"
      ],
      [
        "n",
        "er"
      ],
      [
        "p",
        "y"
      ],
      [
        "s",
        "ha"
      ],
      [
        "s",
        "ci"
      ],
      [
        "w",
        "o"
      ],
      [
        "re",
        "le"
      ],
      [
        "th",
        "ree"
      ],
      [
        "ch",
        "ron"
      ],
      [
        "ab",
        "lis"
      ],
      [
        "ic",
        "ular"
      ],
      [
        "he",
        "ad"
      ],
      [
        "mo",
        "ment"
      ],
      [
        "un",
        "ing"
      ],
      [
        "ma",
        "stery"
      ],
      [
        "res",
        "our"
      ],
      [
        "wor",
        "ld"
      ],
      [
        "ex",
        "ternal"
      ],
      [
        "der",
        "n"
      ],
      [
        "product",
        "s"
      ],
      [
        "fi",
        "eld"
      ],
      [
        "cont",
        "ribut"
      ],
      [
        "sol",
        "ution"
      ],
      [
        "ap",
        "plication"
      ],
      [
        "sa",
        "me"
      ],
      [
        "ult",
        "s"
      ],
      [
        "structure",
        "s"
      ],
      [
        "cy",
        "cles"
      ],
      [
        "corre",
        "l"
      ],
      [
        "cl",
        "ar"
      ],
      [
        "confid",
        "ence"
      ],
      [
        "devel",
        "oper"
      ],
      [
        "part",
        "icular"
      ],
      [
        "specif",
        "ic"
      ],
      [
        "frequ",
        "ent"
      ],
      [
        "attack",
        "er"
      ],
      [
        "ta",
        "ke"
      ],
      [
        "sur",
        "face"
      ],
      [
        "yn",
        "chron"
      ],
      [
        "mon",
        "itoring"
      ],
      [
        "expl",
        "ain"
      ],
      [
        "cho",
        "ice"
      ],
      [
        "immedi",
        "ately"
      ],
      [
        "certaint",
        "y"
      ],
      [
        "resour",
        "ces"
      ],
      [
        "B",
        "e"
      ],
      [
        "R",
        "es"
      ],
      [
        "a",
        "u"
      ],
      [
        "c",
        "in"
      ],
      [
        "g",
        "ives"
      ],
      [
        "h",
        "istory"
      ],
      [
        "i",
        "as"
      ],
      [
        "r",
        "ip"
      ],
      [
        "in",
        "cl"
      ],
      [
        "re",
        "ction"
      ],
      [
        "en",
        "ces"
      ],
      [
        "at",
        "s"
      ],
      [
        "at",
        "ig"
      ],
      [
        "or",
        "iz"
      ],
      [
        "al",
        "one"
      ],
      [
        "te",
        "ms"
      ],
      [
        "de",
        "bug"
      ],
      [
        "be",
        "ats"
      ],
      [
        "mo",
        "dern"
      ],
      [
        "qu",
        "est"
      ],
      [
        "me",
        "an"
      ],
      [
        "int",
        "u"
      ],
      [
        "ad",
        "ap"
      ],
      [
        "se",
        "qu"
      ],
      [
        "ous",
        "ly"
      ],
      [
        "su",
        "ccess"
      ],
      [
        "integr",
        "ation"
      ],
      [
        "bre",
        "ach"
      ],
      [
        "deploy",
        "ments"
      ],
      [
        "provi",
        "de"
      ],
      [
        "mor",
        "tems"
      ],
      [
        "Com",
        "p"
      ],
      [
        "di",
        "rection"
      ],
      [
        "Docu",
        "mentation"
      ],
      [
        "scal",
        "ability"
      ],
      [
        "organ",
        "ization"
      ],
      [
        "Cont",
        "inuous"
      ],
      [
        "Thin",
        "king"
      ],
      [
        "Bre",
        "aking"
      ],
      [
        "sha",
        "pe"
      ],
      [
        "correl",
        "ates"
      ],
      [
        "atig",
        "ue"
      ],
      [
        "a",
        "ut"
      ],
      [
        "c",
        "s"
      ],
      [
        "c",
        "ent"
      ],
      [
        "c",
        "oun"
      ],
      [
        "e",
        "ven"
      ],
      [
        "f",
        "l"
      ],
      [
        "f",
        "as"
      ],
      [
        "f",
        "atigue"
      ],
      [
        "g",
        "ap"
      ],
      [
        "s",
        "ion"
      ],
      [
        "s",
        "ize"
      ],
      [
        "y",
        "ch"
      ],
      [
        "th",
        "is"
      ],
      [
        "en",
        "ough"
      ],
      [
        "en",
        "orm"
      ],
      [
        "an",
        "cial"
      ],
      [
        "ro",
        "und"
      ],
      [
        "de",
        "d"
      ],
      [
        "co",
        "ord"
      ],
      [
        "il",
        "s"
      ],
      [
        "for",
        "ces"
      ],
      [
        "as",
        "es"
      ],
      [
        "to",
        "day"
      ],
      [
        "be",
        "comes"
      ],
      [
        "be",
        "cause"
      ],
      [
        "un",
        "certainty"
      ],
      [
        "con",
        "d"
      ],
      [
        "pl",
        "ace"
      ],
      [
        "do",
        "cs"
      ],
      [
        "oo",
        "sing"
      ],
      [
        "produ",
        "ci"
      ],
      [
        "se",
        "arch"
      ],
      [
        "sh",
        "ow"
      ],
      [
        "su",
        "b"
      ],
      [
        "Re",
        "al"
      ],
      [
        "In",
        "consistent"
      ],
      [
        "ne",
        "cess"
      ],
      [
        "prev",
        "ention"
      ],
      [
        "plic",
        "ity"
      ],
      [
        "ship",
        "ping"
      ],
      [
        "tool",
        "ing"
      ],
      [
        "commun",
        "ity"
      ],
      [
        "keep",
        "s"
      ],
      [
        "lat",
        "er"
      ],
      [
        "great",
        "er"
      ],
      [
        "av",
        "o"
      ],
      [
        "mess",
        "ages"
      ],
      [
        "col",
        "lection"
      ],
      [
        "exist",
        "ing"
      ],
      [
        "inte",
        "rest"
      ],
      [
        "olog",
        "ical"
      ],
      [
        "obs",
        "curity"
      ],
      [
        "post",
        "mortems"
      ],
      [
        "Dist",
        "ributed"
      ],
      [
        "prog",
        "ress"
      ],
      [
        "har",
        "der"
      ],
      [
        "che",
        "ma"
      ],
      [
        "Est",
        "ablis"
      ],
      [
        "cin",
        "ating"
      ],
      [
        "oriz",
        "on"
      ],
      [
        "fas",
        "cinating"
      ],
      [
        "Establis",
        "hing"
      ],
      [
        "C",
        "P"
      ],
      [
        "G",
        "reat"
      ],
      [
        "Q",
        "u"
      ],
      [
        "T",
        "ra"
      ],
      [
        "W",
        "e"
      ],
      [
        "Y",
        "ou"
      ],
      [
        "a",
        "me"
      ],
      [
        "c",
        "is"
      ],
      [
        "e",
        "ith"
      ],
      [
        "f",
        "rust"
      ],
      [
        "g",
        "in"
      ],
      [
        "k",
        "ind"
      ],
      [
        "l",
        "ot"
      ],
      [
        "m",
        "it"
      ],
      [
        "t",
        "as"
      ],
      [
        "t",
        "ru"
      ],
      [
        "in",
        "cipl"
      ],
      [
        "th",
        "s"
      ],
      [
        "or",
        "it"
      ],
      [
        "le",
        "ads"
      ],
      [
        "it",
        "ions"
      ],
      [
        "ar",
        "ding"
      ],
      [
        "de",
        "fa"
      ],
      [
        "pro",
        "to"
      ],
      [
        "ab",
        "oration"
      ],
      [
        "st",
        "ates"
      ],
      [
        "co",
        "ll"
      ],
      [
        "to",
        "o"
      ],
      [
        "li",
        "ves"
      ],
      [
        "li",
        "br"
      ],
      [
        "pl",
        "es"
      ],
      [
        "challen",
        "ges"
      ],
      [
        "ac",
        "cess"
      ],
      [
        "we",
        "ak"
      ],
      [
        "ant",
        "ic"
      ],
      [
        "product",
        "ive"
      ],
      [
        "iz",
        "ed"
      ],
      [
        "cor",
        "d"
      ],
      [
        "ear",
        "ch"
      ],
      [
        "pa",
        "ce"
      ],
      [
        "Te",
        "chnology"
      ],
      [
        "prev",
        "ent"
      ],
      [
        "some",
        "times"
      ],
      [
        "De",
        "li"
      ],
      [
        "am",
        "es"
      ],
      [
        "langu",
        "ages"
      ],
      [
        "part",
        "ial"
      ],
      [
        "att",
        "ention"
      ],
      [
        "vers",
        "us"
      ],
      [
        "ten",
        "d"
      ],
      [
        "ios",
        "ity"
      ],
      [
        "comput",
        "er"
      ],
      [
        "gu",
        "ide"
      ],
      [
        "last",
        "ing"
      ],
      [
        "ref",
        "lect"
      ],
      [
        "ail",
        "ability"
      ],
      [
        "affect",
        "s"
      ],
      [
        "incid",
        "ent"
      ],
      [
        "pain",
        "ful"
      ],
      [
        "predi",
        "ct"
      ],
      [
        "ynchron",
        "ous"
      ],
      [
        "incl",
        "u"
      ],
      [
        "adap",
        "t"
      ],
      [
        "Comp",
        "lex"
      ],
      [
        "ych",
        "ological"
      ],
      [
        "necess",
        "ary"
      ],
      [
        "eith",
        "er"
      ],
      [
        "frust",
        "r"
      ],
      [
        "incipl",
        "es"
      ],
      [
        "M",
        "a"
      ],
      [
        "b",
        "ias"
      ],
      [
        "c",
        "li"
      ],
      [
        "e",
        "v"
      ],
      [
        "f",
        "lex"
      ],
      [
        "h",
        "our"
      ],
      [
        "i",
        "a"
      ],
      [
        "i",
        "des"
      ],
      [
        "n",
        "um"
      ],
      [
        "r",
        "ing"
      ],
      [
        "s",
        "ide"
      ],
      [
        "s",
        "hap"
      ],
      [
        "t",
        "aking"
      ],
      [
        "t",
        "uning"
      ],
      [
        "v",
        "ar"
      ],
      [
        "re",
        "pres"
      ],
      [
        "re",
        "produci"
      ],
      [
        "re",
        "cord"
      ],
      [
        "is",
        "e"
      ],
      [
        "ro",
        "services"
      ],
      [
        "le",
        "ad"
      ],
      [
        "ch",
        "mar"
      ],
      [
        "st",
        "re"
      ],
      [
        "co",
        "ding"
      ],
      [
        "ve",
        "ment"
      ],
      [
        "il",
        "y"
      ],
      [
        "to",
        "ler"
      ],
      [
        "out",
        "last"
      ],
      [
        "be",
        "gin"
      ],
      [
        "com",
        "ments"
      ],
      [
        "mo",
        "ving"
      ],
      [
        "us",
        "ing"
      ],
      [
        "con",
        "ne"
      ],
      [
        "ur",
        "n"
      ],
      [
        "res",
        "earch"
      ],
      [
        "vi",
        "ce"
      ],
      [
        "do",
        "ing"
      ],
      [
        "dif",
        "ference"
      ],
      [
        "su",
        "ch"
      ],
      [
        "valu",
        "es"
      ],
      [
        "iz",
        "ing"
      ],
      [
        "pt",
        "ion"
      ],
      [
        "some",
        "one"
      ],
      [
        "De",
        "ploy"
      ],
      [
        "pr",
        "inciples"
      ],
      [
        "tra",
        "ject"
      ],
      [
        "cou",
        "ra"
      ],
      [
        "long",
        "er"
      ],
      [
        "gu",
        "ides"
      ],
      [
        "la",
        "y"
      ],
      [
        "cho",
        "ices"
      ],
      [
        "strateg",
        "y"
      ],
      [
        "reason",
        "ing"
      ],
      [
        "crit",
        "ical"
      ],
      [
        "fin",
        "ancial"
      ],
      [
        "fer",
        "red"
      ],
      [
        "bal",
        "ance"
      ],
      [
        "identif",
        "ying"
      ],
      [
        "compound",
        "s"
      ],
      [
        "press",
        "ure"
      ],
      [
        "contribut",
        "ing"
      ],
      [
        "Be",
        "ing"
      ],
      [
        "coord",
        "ination"
      ],
      [
        "orizon",
        "tal"
      ],
      [
        "var",
        "i"
      ],
      [
        "toler",
        "ance"
      ],
      [
        "traject",
        "ory"
      ],
      [
        "A",
        "n"
      ],
      [
        "B",
        "lame"
      ],
      [
        "C",
        "ur"
      ],
      [
        "C",
        "ulture"
      ],
      [
        "E",
        "r"
      ],
      [
        "H",
        "um"
      ],
      [
        "I",
        "m"
      ],
      [
        "M",
        "L"
      ],
      [
        "M",
        "an"
      ],
      [
        "O",
        "b"
      ],
      [
        "R",
        "un"
      ],
      [
        "S",
        "cal"
      ],
      [
        "T",
        "o"
      ],
      [
        "b",
        "ro"
      ],
      [
        "d",
        "at"
      ],
      [
        "d",
        "im"
      ],
      [
        "d",
        "ivers"
      ],
      [
        "g",
        "er"
      ],
      [
        "i",
        "ch"
      ],
      [
        "l",
        "coming"
      ],
      [
        "m",
        "in"
      ],
      [
        "s",
        "p"
      ],
      [
        "t",
        "wo"
      ],
      [
        "in",
        "cent"
      ],
      [
        "er",
        "g"
      ],
      [
        "er",
        "ia"
      ],
      [
        "en",
        "ance"
      ],
      [
        "an",
        "te"
      ],
      [
        "on",
        "om"
      ],
      [
        "al",
        "tru"
      ],
      [
        "le",
        "te"
      ],
      [
        "ar",
        "ante"
      ],
      [
        "de",
        "ci"
      ],
      [
        "de",
        "ta"
      ],
      [
        "co",
        "very"
      ],
      [
        "bu",
        "r"
      ],
      [
        "est",
        "im"
      ],
      [
        "be",
        "ing"
      ],
      [
        "per",
        "form"
      ],
      [
        "wh",
        "ich"
      ],
      [
        "res",
        "sive"
      ],
      [
        "me",
        "works"
      ],
      [
        "ex",
        "pe"
      ],
      [
        "se",
        "m"
      ],
      [
        "op",
        "en"
      ],
      [
        "ac",
        "ity"
      ],
      [
        "we",
        "lcoming"
      ],
      [
        "des",
        "igning"
      ],
      [
        "su",
        "p"
      ],
      [
        "act",
        "ually"
      ],
      [
        "ap",
        "pre"
      ],
      [
        "ag",
        "no"
      ],
      [
        "comm",
        "it"
      ],
      [
        "stru",
        "g"
      ],
      [
        "maint",
        "enance"
      ],
      [
        "optimiz",
        "e"
      ],
      [
        "const",
        "ant"
      ],
      [
        "model",
        "ing"
      ],
      [
        "culture",
        "s"
      ],
      [
        "Con",
        "tribution"
      ],
      [
        "am",
        "oun"
      ],
      [
        "oper",
        "ation"
      ],
      [
        "oper",
        "ations"
      ],
      [
        "deep",
        "est"
      ],
      [
        "tr",
        "y"
      ],
      [
        "satisfact",
        "ions"
      ],
      [
        "mic",
        "roservices"
      ],
      [
        "vers",
        "ioning"
      ],
      [
        "ten",
        "sion"
      ],
      [
        "cogn",
        "itive"
      ],
      [
        "di",
        "agno"
      ],
      [
        "abstract",
        "ions"
      ],
      [
        "plan",
        "ning"
      ],
      [
        "cap",
        "acity"
      ],
      [
        "mach",
        "ines"
      ],
      [
        "effici",
        "ent"
      ],
      [
        "dist",
        "ribution"
      ],
      [
        "yn",
        "c"
      ],
      [
        "invol",
        "vement"
      ],
      [
        "sim",
        "plicity"
      ],
      [
        "strateg",
        "ies"
      ],
      [
        "Mo",
        "del"
      ],
      [
        "crit",
        "eria"
      ],
      [
        "health",
        "y"
      ],
      [
        "quest",
        "ions"
      ],
      [
        "mean",
        "ing"
      ],
      [
        "CP",
        "U"
      ],
      [
        "Tra",
        "ining"
      ],
      [
        "weak",
        "ness"
      ],
      [
        "Deli",
        "berate"
      ],
      [
        "ev",
        "ents"
      ],
      [
        "Er",
        "ror"
      ],
      [
        "Hum",
        "ility"
      ],
      [
        "dat",
        "ase"
      ],
      [
        "incent",
        "ives"
      ],
      [
        "altru",
        "istic"
      ],
      [
        "expe",
        "cted"
      ],
      [
        "appre",
        "ci"
      ],
      [
        "A",
        "utom"
      ],
      [
        "B",
        "ad"
      ],
      [
        "C",
        "ol"
      ],
      [
        "L",
        "a"
      ],
      [
        "L",
        "e"
      ],
      [
        "L",
        "og"
      ],
      [
        "M",
        "ast"
      ],
      [
        "N",
        "o"
      ],
      [
        "O",
        "n"
      ],
      [
        "O",
        "p"
      ],
      [
        "O",
        "pen"
      ],
      [
        "P",
        "ri"
      ],
      [
        "Q",
        "L"
      ],
      [
        "S",
        "er"
      ],
      [
        "S",
        "oftware"
      ],
      [
        "T",
        "r"
      ],
      [
        "T",
        "aking"
      ],
      [
        "V",
        "ers"
      ],
      [
        "W",
        "hen"
      ],
      [
        "b",
        "oring"
      ],
      [
        "e",
        "ded"
      ],
      [
        "f",
        "fici"
      ],
      [
        "h",
        "ind"
      ],
      [
        "n",
        "ames"
      ],
      [
        "p",
        "u"
      ],
      [
        "r",
        "t"
      ],
      [
        "s",
        "ens"
      ],
      [
        "s",
        "chema"
      ],
      [
        "w",
        "ould"
      ],
      [
        "z",
        "z"
      ],
      [
        "in",
        "du"
      ],
      [
        "in",
        "put"
      ],
      [
        "an",
        "e"
      ],
      [
        "at",
        "ibility"
      ],
      [
        "on",
        "d"
      ],
      [
        "al",
        "ign"
      ],
      [
        "ro",
        "py"
      ],
      [
        "ar",
        "s"
      ],
      [
        "il",
        "os"
      ],
      [
        "bu",
        "st"
      ],
      [
        "ure",
        "s"
      ],
      [
        "no",
        "thing"
      ],
      [
        "un",
        "common"
      ],
      [
        "un",
        "ivers"
      ],
      [
        "un",
        "expected"
      ],
      [
        "us",
        "ed"
      ],
      [
        "us",
        "able"
      ],
      [
        "if",
        "t"
      ],
      [
        "con",
        "cer"
      ],
      [
        "wh",
        "ile"
      ],
      [
        "du",
        "ring"
      ],
      [
        "ul",
        "tim"
      ],
      [
        "res",
        "h"
      ],
      [
        "res",
        "ults"
      ],
      [
        "vi",
        "rt"
      ],
      [
        "pl",
        "at"
      ],
      [
        "oo",
        "k"
      ],
      [
        "ef",
        "its"
      ],
      [
        "sh",
        "aring"
      ],
      [
        "iv",
        "ing"
      ],
      [
        "comp",
        "atibility"
      ],
      [
        "valu",
        "ation"
      ],
      [
        "every",
        "where"
      ],
      [
        "gh",
        "t"
      ],
      [
        "ful",
        "l"
      ],
      [
        "gra",
        "ph"
      ],
      [
        "ne",
        "eded"
      ],
      [
        "know",
        "ing"
      ],
      [
        "el",
        "f"
      ],
      [
        "continuous",
        "ly"
      ],
      [
        "ps",
        "ychological"
      ],
      [
        "fit",
        "ting"
      ],
      [
        "degra",
        "des"
      ],
      [
        "high",
        "er"
      ],
      [
        "leg",
        "acy"
      ],
      [
        "Ex",
        "pl"
      ],
      [
        "grow",
        "ing"
      ],
      [
        "imple",
        "ment"
      ],
      [
        "imple",
        "mentation"
      ],
      [
        "inter",
        "act"
      ],
      [
        "ris",
        "ks"
      ],
      [
        "manag",
        "ing"
      ],
      [
        "mis",
        "s"
      ],
      [
        "respons",
        "ible"
      ],
      [
        "po",
        "int"
      ],
      [
        "off",
        "line"
      ],
      [
        "break",
        "s"
      ],
      [
        "pri",
        "orit"
      ],
      [
        "pers",
        "pect"
      ],
      [
        "gu",
        "arante"
      ],
      [
        "sign",
        "al"
      ],
      [
        "found",
        "ation"
      ],
      [
        "cover",
        "ing"
      ],
      [
        "individual",
        "s"
      ],
      [
        "ben",
        "efits"
      ],
      [
        "eth",
        "ics"
      ],
      [
        "clar",
        "ity"
      ],
      [
        "enorm",
        "ous"
      ],
      [
        "avo",
        "id"
      ],
      [
        "libr",
        "aries"
      ],
      [
        "hour",
        "s"
      ],
      [
        "shap",
        "es"
      ],
      [
        "reproduci",
        "bility"
      ],
      [
        "dim",
        "ens"
      ],
      [
        "sp",
        "ent"
      ],
      [
        "onom",
        "ous"
      ],
      [
        "deci",
        "ding"
      ],
      [
        "Autom",
        "ation"
      ],
      [
        "pu",
        "zz"
      ],
      [
        "concer",
        "n"
      ],
      [
        "D",
        "is"
      ],
      [
        "E",
        "m"
      ],
      [
        "F",
        "a"
      ],
      [
        "F",
        "uture"
      ],
      [
        "G",
        "et"
      ],
      [
        "K",
        "e"
      ],
      [
        "M",
        "e"
      ],
      [
        "O",
        "ver"
      ],
      [
        "P",
        "y"
      ],
      [
        "P",
        "re"
      ],
      [
        "U",
        "ser"
      ],
      [
        "a",
        "do"
      ],
      [
        "a",
        "ins"
      ],
      [
        "a",
        "round"
      ],
      [
        "b",
        "ly"
      ],
      [
        "c",
        "ation"
      ],
      [
        "c",
        "iting"
      ],
      [
        "d",
        "on"
      ],
      [
        "d",
        "id"
      ],
      [
        "d",
        "yn"
      ],
      [
        "f",
        "ive"
      ],
      [
        "f",
        "its"
      ],
      [
        "f",
        "ree"
      ],
      [
        "g",
        "lo"
      ],
      [
        "g",
        "reg"
      ],
      [
        "j",
        "or"
      ],
      [
        "l",
        "ar"
      ],
      [
        "l",
        "ooks"
      ],
      [
        "n",
        "aming"
      ],
      [
        "o",
        "li"
      ],
      [
        "r",
        "ated"
      ],
      [
        "s",
        "ense"
      ],
      [
        "u",
        "es"
      ],
      [
        "u",
        "ine"
      ],
      [
        "u",
        "ck"
      ],
      [
        "v",
        "ation"
      ],
      [
        "en",
        "coura"
      ],
      [
        "or",
        "der"
      ],
      [
        "is",
        "m"
      ],
      [
        "ro",
        "unde"
      ],
      [
        "te",
        "m"
      ],
      [
        "st",
        "ar"
      ],
      [
        "st",
        "op"
      ],
      [
        "st",
        "ore"
      ],
      [
        "ent",
        "ropy"
      ],
      [
        "co",
        "exist"
      ],
      [
        "for",
        "ms"
      ],
      [
        "mo",
        "dif"
      ],
      [
        "ma",
        "jor"
      ],
      [
        "con",
        "ver"
      ],
      [
        "con",
        "sequ"
      ],
      [
        "cre",
        "te"
      ],
      [
        "ren",
        "cy"
      ],
      [
        "me",
        "e"
      ],
      [
        "me",
        "chan"
      ],
      [
        "se",
        "par"
      ],
      [
        "op",
        "port"
      ],
      [
        "process",
        "ing"
      ],
      [
        "we",
        "re"
      ],
      [
        "dis",
        "covering"
      ],
      [
        "cur",
        "rency"
      ],
      [
        "Bu",
        "il"
      ],
      [
        "ag",
        "ing"
      ],
      [
        "vel",
        "oper"
      ],
      [
        "man",
        "age"
      ],
      [
        "man",
        "aged"
      ],
      [
        "sa",
        "ve"
      ],
      [
        "mat",
        "ch"
      ],
      [
        "pa",
        "per"
      ],
      [
        "ugh",
        "t"
      ],
      [
        "funct",
        "ional"
      ],
      [
        "cas",
        "e"
      ],
      [
        "meas",
        "uring"
      ],
      [
        "will",
        "ing"
      ],
      [
        "De",
        "veloper"
      ],
      [
        "am",
        "ples"
      ],
      [
        "commun",
        "ic"
      ],
      [
        "inter",
        "pre"
      ],
      [
        "gen",
        "uine"
      ],
      [
        "id",
        "den"
      ],
      [
        "tra",
        "ces"
      ],
      [
        "tra",
        "cing"
      ],
      [
        "ain",
        "able"
      ],
      [
        "ser",
        "ver"
      ],
      [
        "ser",
        "ious"
      ],
      [
        "deploy",
        "ing"
      ],
      [
        "gener",
        "al"
      ],
      [
        "ject",
        "ivity"
      ],
      [
        "fra",
        "meworks"
      ],
      [
        "output",
        "s"
      ],
      [
        "att",
        "ract"
      ],
      [
        "po",
        "or"
      ],
      [
        "algorith",
        "ms"
      ],
      [
        "docu",
        "menting"
      ],
      [
        "under",
        "rated"
      ],
      [
        "hab",
        "its"
      ],
      [
        "serv",
        "ability"
      ],
      [
        "loo",
        "p"
      ],
      [
        "ta",
        "ught"
      ],
      [
        "effici",
        "ency"
      ],
      [
        "opt",
        "ional"
      ],
      [
        "gu",
        "ess"
      ],
      [
        "Ch",
        "oosing"
      ],
      [
        "mess",
        "y"
      ],
      [
        "mess",
        "age"
      ],
      [
        "ph",
        "ilos"
      ],
      [
        "maintain",
        "ability"
      ],
      [
        "found",
        "ations"
      ],
      [
        "inte",
        "l"
      ],
      [
        "incid",
        "ents"
      ],
      [
        "after",
        "thought"
      ],
      [
        "surpris",
        "ing"
      ],
      [
        "surpris",
        "es"
      ],
      [
        "sci",
        "ence"
      ],
      [
        "intu",
        "ition"
      ],
      [
        "aut",
        "onomous"
      ],
      [
        "show",
        "s"
      ],
      [
        "sub",
        "jectivity"
      ],
      [
        "Qu",
        "ality"
      ],
      [
        "cis",
        "ion"
      ],
      [
        "mit",
        "ting"
      ],
      [
        "tas",
        "ks"
      ],
      [
        "inclu",
        "ding"
      ],
      [
        "flex",
        "ibility"
      ],
      [
        "conne",
        "ct"
      ],
      [
        "Blame",
        "less"
      ],
      [
        "Cur",
        "iosity"
      ],
      [
        "Ob",
        "servability"
      ],
      [
        "divers",
        "e"
      ],
      [
        "deta",
        "ils"
      ],
      [
        "sup",
        "port"
      ],
      [
        "strug",
        "gle"
      ],
      [
        "amoun",
        "t"
      ],
      [
        "appreci",
        "ate"
      ],
      [
        "Mast",
        "ery"
      ],
      [
        "Op",
        "timiz"
      ],
      [
        "Tr",
        "ans"
      ],
      [
        "univers",
        "al"
      ],
      [
        "Expl",
        "ain"
      ],
      [
        "guarante",
        "es"
      ],
      [
        "Ke",
        "ep"
      ],
      [
        "dyn",
        "am"
      ],
      [
        "lar",
        "ger"
      ],
      [
        "rounde",
        "d"
      ],
      [
        "modif",
        "y"
      ],
      [
        "interpre",
        "ted"
      ],
      [
        "philos",
        "op"
      ],
      [
        "A",
        "v"
      ],
      [
        "B",
        "l"
      ],
      [
        "C",
        "lear"
      ],
      [
        "C",
        "AP"
      ],
      [
        "H",
        "T"
      ],
      [
        "H",
        "igh"
      ],
      [
        "L",
        "ong"
      ],
      [
        "M",
        "ic"
      ],
      [
        "P",
        "art"
      ],
      [
        "R",
        "E"
      ],
      [
        "S",
        "S"
      ],
      [
        "S",
        "c"
      ],
      [
        "S",
        "imple"
      ],
      [
        "T",
        "im"
      ],
      [
        "U",
        "X"
      ],
      [
        "V",
        "er"
      ],
      [
        "a",
        "ke"
      ],
      [
        "b",
        "l"
      ],
      [
        "b",
        "atch"
      ],
      [
        "b",
        "ile"
      ],
      [
        "b",
        "loc"
      ],
      [
        "b",
        "lame"
      ],
      [
        "c",
        "ru"
      ],
      [
        "d",
        "ent"
      ],
      [
        "d",
        "ate"
      ],
      [
        "d",
        "one"
      ],
      [
        "e",
        "c"
      ],
      [
        "e",
        "ver"
      ],
      [
        "e",
        "ces"
      ],
      [
        "e",
        "valuation"
      ],
      [
        "g",
        "ift"
      ],
      [
        "h",
        "idden"
      ],
      [
        "i",
        "re"
      ],
      [
        "i",
        "ding"
      ],
      [
        "i",
        "ke"
      ],
      [
        "n",
        "at"
      ],
      [
        "n",
        "on"
      ],
      [
        "n",
        "ight"
      ],
      [
        "p",
        "ol"
      ],
      [
        "p",
        "ill"
      ],
      [
        "r",
        "ate"
      ],
      [
        "t",
        "ical"
      ],
      [
        "t",
        "ak"
      ],
      [
        "t",
        "reat"
      ],
      [
        "t",
        "ention"
      ],
      [
        "w",
        "ent"
      ],
      [
        "w",
        "arding"
      ],
      [
        "y",
        "ond"
      ],
      [
        "re",
        "warding"
      ],
      [
        "th",
        "en"
      ],
      [
        "er",
        "ge"
      ],
      [
        "er",
        "ical"
      ],
      [
        "er",
        "red"
      ],
      [
        "an",
        "cy"
      ],
      [
        "is",
        "ol"
      ],
      [
        "ro",
        "bust"
      ],
      [
        "le",
        "br"
      ],
      [
        "the",
        "ore"
      ],
      [
        "de",
        "x"
      ],
      [
        "ab",
        "el"
      ],
      [
        "st",
        "ack"
      ],
      [
        "st",
        "ory"
      ],
      [
        "st",
        "ay"
      ],
      [
        "and",
        "s"
      ],
      [
        "im",
        "al"
      ],
      [
        "im",
        "plications"
      ],
      [
        "as",
        "k"
      ],
      [
        "be",
        "hind"
      ],
      [
        "are",
        "as"
      ],
      [
        "he",
        "d"
      ],
      [
        "no",
        "vation"
      ],
      [
        "li",
        "ct"
      ],
      [
        "mo",
        "ve"
      ],
      [
        "mo",
        "oth"
      ],
      [
        "mo",
        "bile"
      ],
      [
        "un",
        "ching"
      ],
      [
        "ma",
        "g"
      ],
      [
        "qu",
        "er"
      ],
      [
        "ig",
        "ur"
      ],
      [
        "ra",
        "p"
      ],
      [
        "res",
        "sing"
      ],
      [
        "tea",
        "d"
      ],
      [
        "ex",
        "p"
      ],
      [
        "ex",
        "tra"
      ],
      [
        "ex",
        "amples"
      ],
      [
        "ef",
        "s"
      ],
      [
        "ad",
        "iness"
      ],
      [
        "iv",
        "acy"
      ],
      [
        "dis",
        "k"
      ],
      [
        "Re",
        "adiness"
      ],
      [
        "sol",
        "ves"
      ],
      [
        "ap",
        "ers"
      ],
      [
        "effect",
        "s"
      ],
      [
        "system",
        "at"
      ],
      [
        "man",
        "ship"
      ],
      [
        "pa",
        "ir"
      ],
      [
        "view",
        "s"
      ],
      [
        "over",
        "head"
      ],
      [
        "pract",
        "ical"
      ],
      [
        "sc",
        "rip"
      ],
      [
        "el",
        "se"
      ],
      [
        "vis",
        "ion"
      ],
      [
        "ir",
        "ness"
      ],
      [
        "cost",
        "s"
      ],
      [
        "path",
        "s"
      ],
      [
        "beli",
        "efs"
      ],
      [
        "Pro",
        "g"
      ],
      [
        "grow",
        "s"
      ],
      [
        "lea",
        "ding"
      ],
      [
        "ins",
        "tead"
      ],
      [
        "id",
        "th"
      ],
      [
        "part",
        "s"
      ],
      [
        "tra",
        "ined"
      ],
      [
        "gener",
        "ation"
      ],
      [
        "gener",
        "ally"
      ],
      [
        "fix",
        "ing"
      ],
      [
        "add",
        "ressing"
      ],
      [
        "mis",
        "leading"
      ],
      [
        "respons",
        "i"
      ],
      [
        "measure",
        "s"
      ],
      [
        "appro",
        "pri"
      ],
      [
        "po",
        "se"
      ],
      [
        "Se",
        "e"
      ],
      [
        "vers",
        "ion"
      ],
      [
        "consist",
        "ently"
      ],
      [
        "Com",
        "m"
      ],
      [
        "human",
        "s"
      ],
      [
        "hap",
        "py"
      ],
      [
        "care",
        "er"
      ],
      [
        "di",
        "rect"
      ],
      [
        "event",
        "ual"
      ],
      [
        "net",
        "works"
      ],
      [
        "loo",
        "k"
      ],
      [
        "eng",
        "agement"
      ],
      [
        "At",
        "tention"
      ],
      [
        "compon",
        "ent"
      ],
      [
        "fundamental",
        "s"
      ],
      [
        "cap",
        "t"
      ],
      [
        "cap",
        "ability"
      ],
      [
        "read",
        "y"
      ],
      [
        "environ",
        "ment"
      ],
      [
        "happen",
        "ing"
      ],
      [
        "conf",
        "lict"
      ],
      [
        "down",
        "time"
      ],
      [
        "mon",
        "ths"
      ],
      [
        "mon",
        "oli"
      ],
      [
        "av",
        "ailability"
      ],
      [
        "Consist",
        "ent"
      ],
      [
        "observ",
        "able"
      ],
      [
        "expl",
        "oring"
      ],
      [
        "run",
        "books"
      ],
      [
        "set",
        "ting"
      ],
      [
        "sim",
        "pl"
      ],
      [
        "trade",
        "offs"
      ],
      [
        "follow",
        "s"
      ],
      [
        "Mo",
        "st"
      ],
      [
        "allow",
        "s"
      ],
      [
        "migr",
        "ation"
      ],
      [
        "migr",
        "ations"
      ],
      [
        "perfect",
        "ly"
      ],
      [
        "identif",
        "y"
      ],
      [
        "ben",
        "chmar"
      ],
      [
        "roll",
        "back"
      ],
      [
        "life",
        "long"
      ],
      [
        "person",
        "al"
      ],
      [
        "au",
        "thor"
      ],
      [
        "intu",
        "itive"
      ],
      [
        "fl",
        "u"
      ],
      [
        "fl",
        "ag"
      ],
      [
        "cond",
        "itions"
      ],
      [
        "We",
        "b"
      ],
      [
        "defa",
        "ults"
      ],
      [
        "coll",
        "aboration"
      ],
      [
        "access",
        "ible"
      ],
      [
        "adapt",
        "able"
      ],
      [
        "Complex",
        "ity"
      ],
      [
        "num",
        "erical"
      ],
      [
        "stre",
        "am"
      ],
      [
        "Scal",
        "ability"
      ],
      [
        "bur",
        "den"
      ],
      [
        "constant",
        "ly"
      ],
      [
        "diagno",
        "se"
      ],
      [
        "Model",
        "s"
      ],
      [
        "meaning",
        "ful"
      ],
      [
        "datase",
        "t"
      ],
      [
        "La",
        "unching"
      ],
      [
        "Log",
        "ging"
      ],
      [
        "Vers",
        "ion"
      ],
      [
        "priorit",
        "izes"
      ],
      [
        "Get",
        "ting"
      ],
      [
        "consequ",
        "ences"
      ],
      [
        "mee",
        "ting"
      ],
      [
        "willing",
        "ness"
      ],
      [
        "Keep",
        "ing"
      ],
      [
        "dynam",
        "ics"
      ],
      [
        "Ver",
        "tical"
      ],
      [
        "nat",
        "ural"
      ],
      [
        "pill",
        "ars"
      ],
      [
        "tak",
        "en"
      ],
      [
        "theore",
        "m"
      ],
      [
        "C",
        "I"
      ],
      [
        "C",
        "L"
      ],
      [
        "D",
        "N"
      ],
      [
        "E",
        "ven"
      ],
      [
        "E",
        "ffici"
      ],
      [
        "F",
        "in"
      ],
      [
        "F",
        "ail"
      ],
      [
        "G",
        "o"
      ],
      [
        "H",
        "y"
      ],
      [
        "H",
        "orizontal"
      ],
      [
        "L",
        "at"
      ],
      [
        "L",
        "ow"
      ],
      [
        "L",
        "ike"
      ],
      [
        "O",
        "r"
      ],
      [
        "P",
        "o"
      ],
      [
        "P",
        "r"
      ],
      [
        "P",
        "lat"
      ],
      [
        "S",
        "L"
      ],
      [
        "S",
        "T"
      ],
      [
        "S",
        "ust"
      ],
      [
        "S",
        "low"
      ],
      [
        "T",
        "P"
      ],
      [
        "T",
        "wo"
      ],
      [
        "W",
        "or"
      ],
      [
        "W",
        "he"
      ],
      [
        "a",
        "e"
      ],
      [
        "a",
        "der"
      ],
      [
        "a",
        "os"
      ],
      [
        "a",
        "way"
      ],
      [
        "a",
        "utomat"
      ],
      [
        "b",
        "ar"
      ],
      [
        "b",
        "and"
      ],
      [
        "b",
        "ra"
      ],
      [
        "b",
        "age"
      ],
      [
        "b",
        "log"
      ],
      [
        "b",
        "ook"
      ],
      [
        "c",
        "ul"
      ],
      [
        "c",
        "aring"
      ],
      [
        "d",
        "atab"
      ],
      [
        "f",
        "ron"
      ],
      [
        "f",
        "inal"
      ],
      [
        "g",
        "ive"
      ],
      [
        "g",
        "ence"
      ],
      [
        "h",
        "orizontal"
      ],
      [
        "i",
        "or"
      ],
      [
        "i",
        "ed"
      ],
      [
        "i",
        "ences"
      ],
      [
        "j",
        "ob"
      ],
      [
        "l",
        "aboration"
      ],
      [
        "l",
        "abel"
      ],
      [
        "m",
        "pot"
      ],
      [
        "n",
        "ormal"
      ],
      [
        "n",
        "ative"
      ],
      [
        "p",
        "or"
      ],
      [
        "p",
        "oth"
      ],
      [
        "r",
        "al"
      ],
      [
        "s",
        "ch"
      ],
      [
        "s",
        "ync"
      ],
      [
        "s",
        "mooth"
      ],
      [
        "t",
        "ic"
      ],
      [
        "t",
        "ics"
      ],
      [
        "v",
        "ul"
      ],
      [
        "w",
        "idth"
      ],
      [
        "z",
        "one"
      ],
      [
        "z",
        "ero"
      ],
      [
        "in",
        "st"
      ],
      [
        "in",
        "ferred"
      ],
      [
        "in",
        "flu"
      ],
      [
        "re",
        "en"
      ],
      [
        "re",
        "pe"
      ],
      [
        "re",
        "ally"
      ],
      [
        "re",
        "struct"
      ],
      [
        "re",
        "mem"
      ],
      [
        "re",
        "place"
      ],
      [
        "th",
        "on"
      ],
      [
        "on",
        "ce"
      ],
      [
        "on",
        "line"
      ],
      [
        "or",
        "ies"
      ],
      [
        "is",
        "do"
      ],
      [
        "le",
        "t"
      ],
      [
        "the",
        "ory"
      ],
      [
        "ch",
        "oosing"
      ],
      [
        "ch",
        "aos"
      ],
      [
        "ar",
        "ily"
      ],
      [
        "ar",
        "bage"
      ],
      [
        "de",
        "tect"
      ],
      [
        "de",
        "term"
      ],
      [
        "ab",
        "or"
      ],
      [
        "st",
        "es"
      ],
      [
        "st",
        "ry"
      ],
      [
        "and",
        "om"
      ],
      [
        "co",
        "re"
      ],
      [
        "as",
        "ed"
      ],
      [
        "as",
        "able"
      ],
      [
        "bu",
        "s"
      ],
      [
        "to",
        "p"
      ],
      [
        "out",
        "perform"
      ],
      [
        "be",
        "yond"
      ],
      [
        "mo",
        "ves"
      ],
      [
        "ment",
        "ally"
      ],
      [
        "un",
        "t"
      ],
      [
        "un",
        "less"
      ],
      [
        "un",
        "limited"
      ],
      [
        "fa",
        "m"
      ],
      [
        "The",
        "y"
      ],
      [
        "ra",
        "cy"
      ],
      [
        "con",
        "current"
      ],
      [
        "con",
        "currency"
      ],
      [
        "vi",
        "d"
      ],
      [
        "ex",
        "citing"
      ],
      [
        "ex",
        "ec"
      ],
      [
        "ad",
        "ig"
      ],
      [
        "ad",
        "mitting"
      ],
      [
        "ci",
        "dent"
      ],
      [
        "ac",
        "cru"
      ],
      [
        "fact",
        "or"
      ],
      [
        "sh",
        "ort"
      ],
      [
        "comp",
        "il"
      ],
      [
        "su",
        "st"
      ],
      [
        "su",
        "me"
      ],
      [
        "dis",
        "crete"
      ],
      [
        "wa",
        "stes"
      ],
      [
        "Re",
        "vis"
      ],
      [
        "iz",
        "ations"
      ],
      [
        "ap",
        "ps"
      ],
      [
        "gra",
        "dual"
      ],
      [
        "system",
        "ic"
      ],
      [
        "ag",
        "greg"
      ],
      [
        "man",
        "ner"
      ],
      [
        "pa",
        "ying"
      ],
      [
        "discipline",
        "d"
      ],
      [
        "ri",
        "ction"
      ],
      [
        "incre",
        "ased"
      ],
      [
        "ult",
        "ane"
      ],
      [
        "comm",
        "and"
      ],
      [
        "In",
        "t"
      ],
      [
        "cy",
        "cle"
      ],
      [
        "ne",
        "gle"
      ],
      [
        "over",
        "all"
      ],
      [
        "ca",
        "me"
      ],
      [
        "safe",
        "ly"
      ],
      [
        "cu",
        "racy"
      ],
      [
        "correct",
        "ly"
      ],
      [
        "St",
        "r"
      ],
      [
        "da",
        "ily"
      ],
      [
        "Con",
        "text"
      ],
      [
        "inter",
        "views"
      ],
      [
        "tr",
        "ics"
      ],
      [
        "focus",
        "ing"
      ],
      [
        "focus",
        "es"
      ],
      [
        "pres",
        "ent"
      ],
      [
        "ser",
        "ving"
      ],
      [
        "ser",
        "vers"
      ],
      [
        "fix",
        "es"
      ],
      [
        "go",
        "ing"
      ],
      [
        "Th",
        "ese"
      ],
      [
        "br",
        "ing"
      ],
      [
        "pre",
        "ferred"
      ],
      [
        "state",
        "less"
      ],
      [
        "trans",
        "form"
      ],
      [
        "end",
        "s"
      ],
      [
        "replic",
        "as"
      ],
      [
        "cap",
        "able"
      ],
      [
        "read",
        "ability"
      ],
      [
        "Gra",
        "ph"
      ],
      [
        "driv",
        "es"
      ],
      [
        "mult",
        "i"
      ],
      [
        "interfa",
        "ce"
      ],
      [
        "comput",
        "ers"
      ],
      [
        "comput",
        "ation"
      ],
      [
        "down",
        "stream"
      ],
      [
        "ens",
        "uring"
      ],
      [
        "typ",
        "ically"
      ],
      [
        "Cl",
        "ar"
      ],
      [
        "par",
        "ame"
      ],
      [
        "par",
        "adig"
      ],
      [
        "pi",
        "eces"
      ],
      [
        "limit",
        "ing"
      ],
      [
        "run",
        "ning"
      ],
      [
        "ref",
        "ers"
      ],
      [
        "ref",
        "erred"
      ],
      [
        "sim",
        "ultane"
      ],
      [
        "trade",
        "off"
      ],
      [
        "maintain",
        "able"
      ],
      [
        "olog",
        "y"
      ],
      [
        "achieve",
        "d"
      ],
      [
        "bo",
        "ard"
      ],
      [
        "perfect",
        "ion"
      ],
      [
        "experiment",
        "ing"
      ],
      [
        "ner",
        "abilities"
      ],
      [
        "rele",
        "vant"
      ],
      [
        "rele",
        "asable"
      ],
      [
        "clar",
        "if"
      ],
      [
        "specific",
        "ations"
      ],
      [
        "success",
        "es"
      ],
      [
        "interest",
        "ing"
      ],
      [
        "defa",
        "ult"
      ],
      [
        "proto",
        "col"
      ],
      [
        "coll",
        "abor"
      ],
      [
        "cli",
        "ent"
      ],
      [
        "cli",
        "ents"
      ],
      [
        "repres",
        "ent"
      ],
      [
        "repres",
        "ents"
      ],
      [
        "lead",
        "ership"
      ],
      [
        "Deploy",
        "ment"
      ],
      [
        "vari",
        "ance"
      ]
    ]
  }
}